/**
  ******************************************************************************
  * @file    ai_model_data_params.c
  * @author  AST Embedded Analytics Research Platform
  * @date    2025-07-22T19:58:31+0200
  * @brief   AI Tool Automatic Code Generator for Embedded NN computing
  ******************************************************************************
  * Copyright (c) 2025 STMicroelectronics.
  * All rights reserved.
  *
  * This software is licensed under terms that can be found in the LICENSE file
  * in the root directory of this software component.
  * If no LICENSE file comes with this software, it is provided AS-IS.
  ******************************************************************************
  */

#include "ai_model_data_params.h"

/**  Activations Section  ****************************************************/
static uint8_t ai_model_activations_buffer[AI_AI_MODEL_DATA_ACTIVATIONS_SIZE];

ai_handle g_ai_model_activations_table[1 + 2] = {
  AI_HANDLE_PTR(AI_MAGIC_MARKER),
  AI_HANDLE_PTR(ai_model_activations_buffer),
  AI_HANDLE_PTR(AI_MAGIC_MARKER),
};




/**  Weights Section  ********************************************************/
AI_ALIGNED(32)
const ai_u64 s_ai_model_weights_array_u64[56868] = {
  0x3e688dad3e4cade0U, 0xbea101d23eebb080U, 0xbe41bc7dbda7209aU, 0xbd91708bbef1fd09U,
  0xbe8ba0fcba462360U, 0xbe1249183c5829a3U, 0xbdb3ab383da643f0U, 0xbe5ead7abe525b5fU,
  0xbe8bef983e236693U, 0x3eb685763e916d0aU, 0x3e94faafbf126067U, 0xbe9c9547bee8bcc4U,
  0x3e145677bf2bf5a8U, 0xbf29b7fa3e001b38U, 0xbf398012be8b6660U, 0xbefc44633f0a5817U,
  0x3f16730cbd773e03U, 0x3ea2249b3e952c07U, 0x3eccb8e63fa9dec4U, 0x3d2b1d22bfa32657U,
  0x3f4d7996beca46daU, 0xbeaa9a74bfece6e3U, 0x3e6131293f354140U, 0xbdbb8b9c3e00ed7fU,
  0x3da1e1e33d8f4697U, 0x3d021d70be835fc3U, 0xbe5fb38ebd6b1829U, 0xbe5476b1be2d3a80U,
  0xbe7f800b3dbee411U, 0x3d56de1d3d866a32U, 0x3e055fdbbde3e87bU, 0xbd52039a3dd2ac8eU,
  0x3d5b22bfbe9e8364U, 0xbe9cae143d75a590U, 0x3e001bdabdd3cc0fU, 0xbe462af2bea5e818U,
  0xbcbceec63d929b7dU, 0x3dd9cb933dd8dae2U, 0x3db71b6a3e62129dU, 0x3dc123da3df0c4acU,
  0x3ed33c353e78eab3U, 0x3da153b6be99d58dU, 0xbe965958be5d7ef3U, 0xbf25084f3d93cdd1U,
  0xbe4af796bd98f762U, 0x3e66cec33e730538U, 0x3e687f0fbd8efcd7U, 0x3dce753c3d847851U,
  0x3d2e82223e9da9f4U, 0xbe44bd2dbe1bf25dU, 0xbc9d6863bcb34ea3U, 0xbe5d9413be35759dU,
  0xbe3a05593e027c9eU, 0x3e8d9b1bbe539adfU, 0x3d346465beaac9acU, 0x3e31d1fa3df0c80bU,
  0x3ea35426bebaeb45U, 0x3e4f7fdbbd2166edU, 0x3b5d30d93eb1a494U, 0xbe00fe99bf325d7eU,
  0x3ea40ec33f590173U, 0xbf56c71f3f453ddcU, 0xbf1bc98dbf126010U, 0x402faafabef61f99U,
  0x3ecfad55bff14e72U, 0x3fd553bb3f166fd5U, 0xc05109253f0dc60bU, 0xc02cdb2a3d71957fU,
  0x3fb27c953e023336U, 0x3fab92083f8bc99dU, 0x3fccdb76beec5c45U, 0xbf4b994fbfc216e3U,
  0x3e22acf43f815297U, 0x3f77e65a3d8a2e47U, 0xbe8dd3adbf910615U, 0x3f6b4c66bfbdc94bU,
  0xbf5c7b76bd5cab0aU, 0x3d728e563f3dd0cdU, 0xbea862483eaf77c0U, 0x3f21f5873ef10caeU,
  0xbf1443033f303becU, 0x3f26cad33f216afaU, 0xbf045b993f371d48U, 0xbedba58fbf5645a7U,
  0xbf662cafbe5e42e4U, 0xbecb0395be1aa5ffU, 0xbe4792253e73a008U, 0xbda3b384be41380cU,
  0xbcbf21ddbdf7f6a3U, 0xbc864285befc10c1U, 0x3f58db04be966f73U, 0x3dadf055becf07a5U,
  0x3e5be4aabe6be353U, 0x3e4fb1c4be8b3d8cU, 0xbe4326783ec176e9U, 0x3e28a744bea8a3fdU,
  0xbcf40f6fbec6d380U, 0x3ea70a173e4cab2cU, 0x3eac5b8bbc146f52U, 0xbfb1121a3ef81049U,
  0xbcba231fbf8701f3U, 0x3ef29b4cbddbc89aU, 0x3fe166cebed12752U, 0x3e7679fc3f485450U,
  0x3fa71e413dccb633U, 0x3f02e5433e94e139U, 0xbf0fe4d13e0e9b19U, 0xbf318689bedd510cU,
  0xbdef4ad93dc0452cU, 0x3e19139c3ef79575U, 0x3e9656debe2855f3U, 0x3db2c2e8bde8935dU,
  0x3ead820a3e5cc366U, 0xbe4557663ee05b27U, 0x3e6be5eb3e9eba48U, 0xbc3004303ebfba87U,
  0x3e88db59bf059764U, 0x3f2e7dfdbe655217U, 0x3e3f3371bfad0c1cU, 0xbf652ef4bf5a98e0U,
  0x3dcb62013da2fd45U, 0x3f7f51303fc9b91eU, 0xbeff71e4bf9f071cU, 0xbf8495373f3d326cU,
  0xbfb02e5d3ef37917U, 0x3f223f483fce6c74U, 0xc02a5711bf147b56U, 0x3fc382f1403eceadU,
  0xc0606cc0bfd5ce2bU, 0x4085057dbf59a839U, 0x3e38b5733f3c3fe0U, 0x3e41e7cebe3f830fU,
  0x3e2ef9883eb2e4d3U, 0x3eb9d4283e005eb6U, 0x3e63f82cbecfc6d5U, 0x3e532d64be1bb4b4U,
  0xbeb120273de49436U, 0xbe8a874e3e274046U, 0x3de1615fbeec18beU, 0xbf967a94bbff4b36U,
  0xc01c346abfc8d339U, 0xbfa7b7213cc5652dU, 0x3f62d6494023dcf3U, 0x3eb9dd764028d111U,
  0xbe3c0d89bcba5790U, 0xbc9233f2bd2e9dd2U, 0xbe09c7de3d751728U, 0xbe86caf93d9f7925U,
  0xbd9e4e47be92e22eU, 0xbe1fa4d4bd47ac9bU, 0xbe39b5a8be233d85U, 0x3ec96b2e3e7a4baeU,
  0xbe7f0ec43e349a83U, 0xbdde3e58beb59ce6U, 0xbdaecc5abe1365bbU, 0xbe0fbdd53e21e5d8U,
  0xbdf6fa85bc955b6cU, 0xba6663a03e4ef42dU, 0x3e37763e3d9e790fU, 0x3ea34817bd2ce350U,
  0x3c822874ba95c1c4U, 0xbd5e5770bcfe6bf8U, 0xbd12917b3db5bf83U, 0xbd46a568bd7444faU,
  0x3c3097fc3d82310fU, 0xbd3e14eb3cd583f9U, 0xbcfb7aacbe2e4aa0U, 0xbdb7e35f3d8bf4b7U,
  0x3d8d1332bd889d30U, 0x3d985ed7bdb6fb3cU, 0xbe0e9ca23d93968eU, 0x3d80dbd63c578e53U,
  0x3d0c9f0dbd90e35dU, 0xbb2412ed3dc5ef01U, 0xbd6d67c3bd8c367fU, 0xbd51f860bd5d2bb4U,
  0xbc428000bcb901cbU, 0xbdf2a981bcdfddffU, 0xbd892d75bd652159U, 0xbd095425bd1a08e4U,
  0x3ca18dd93cbcad78U, 0xbc95c9973cfaf4f7U, 0xbc5e9250be2fc79fU, 0x3d854b43bbf21521U,
  0x3d06c3f9bdad185dU, 0x3d823adbbcc2165bU, 0xbdf9599939a46935U, 0x3d6a9442bdb5adffU,
  0x3cdad1aebcea672bU, 0xbe0957b83ce05abdU, 0xbd5afe7ebdae8d39U, 0xbe790b76bc99dfc5U,
  0xbd10f3babdf0a2b8U, 0x3ab4b5b2bd715730U, 0xbd8862183d355603U, 0xbd0ba8c8bd3004f4U,
  0xbc885b79bda9b695U, 0x3d0ee8b3bbd13200U, 0x3c7dd218bde16fd6U, 0xbd15615fbd034444U,
  0xbd776a44bdf1227cU, 0x3d68b31dbcc90806U, 0xbcadd86dbcc8af94U, 0xbd97c3a9bd96ba48U,
  0xbcdebc9ebd94b603U, 0xbc980dfb3d728521U, 0xbe023228bce9fbf6U, 0x3d903cbdbe12679aU,
  0xbd7b56053c2c4f42U, 0xbdb96b78be1f1f66U, 0xbbd8c2bb3d94e5d5U, 0xbddc7029bd24585aU,
  0x3d6b12703cc2100bU, 0x3c686ee63d34637fU, 0xbca16cd1bdce5288U, 0xbe1f3632bd9a0eedU,
  0x3de9d095bd106df9U, 0xbe2446f63c88792cU, 0xbd80f85ebdf46007U, 0x3d774f91bde3ec93U,
  0x3d9a6d39bbda9bd5U, 0xbd0fc5cebe33dadfU, 0x3d6cad38be42582cU, 0xbde95e65bc62f68eU,
  0xbd777f7a3e0c4d85U, 0xbd405a8dbddcbf78U, 0x3cc1fa483d9c0238U, 0xbdc7f94abc233eb8U,
  0x3dc06d57bd1052c5U, 0x3dac89dd3de5f8deU, 0xbbb025a8bde64fc7U, 0xbe3154763c2bbd24U,
  0x3def90fbbd941a45U, 0xbc1ab44e3e42fb5aU, 0x3d35c12abe4cb6e8U, 0xbc41cfb3bd82809dU,
  0x3d7b7305bccca856U, 0xbd23c1e53e01253eU, 0xba422c99be35e658U, 0x3c57adab3c8368adU,
  0x3b84d97d3d55bb44U, 0x3d717a64be58f830U, 0x3ba6ea8fbd4bd814U, 0xbd0f38833d84db35U,
  0x3df3d3483d1cad42U, 0x3cead9863d8709f7U, 0x3d18aeacbe38793eU, 0x3df498723e14983bU,
  0xbe13add9be68b204U, 0x3cdf69563e0f19f2U, 0xbcbe50d6bec8a0fbU, 0x3d2f159fbe1b0342U,
  0x3d8326ffbdcdf80eU, 0xbe8d28c2bd831939U, 0x3e07de5d3db63147U, 0x3dabc8c8bd4cbe52U,
  0x3d890eef3d8337efU, 0xbdf9923abd966e31U, 0x3bc0ab38bd9a2be7U, 0x3d05a360bba6871dU,
  0x3d4b1cbfbbd75029U, 0x3c21d152bd5ea1a1U, 0x3d84af22bd41968fU, 0xbdd13de1bd21b6b5U,
  0xbba7458bbcccd571U, 0x3d3d3adb3dac3ee4U, 0x3d07ca03bbdb84d9U, 0xbde309303b698e39U,
  0x3ca8c4b1bdbfe5c0U, 0x3bcb4edfbd9fb226U, 0x3c50a6633e045a41U, 0x3d49dd023d1db70fU,
  0x3df45c203d3cc98cU, 0x3cf8b2113c82350cU, 0x3d0fdc00bc51f7a7U, 0x3d0d3b143af98c5cU,
  0x3cf8f179bc238bc1U, 0xbb59faa7bdae19e2U, 0x3da9c892bd586fd3U, 0xbd930b40bcbc0e0eU,
  0xbd9e1fc1bcac51bfU, 0x3dcdb5733e0ac5b7U, 0x3cb59562bc95a575U, 0x3cf69480bd001a51U,
  0x3c1c9ddabd95aa43U, 0xbde4302f3db8af0cU, 0xbd18efdc3d8f83f7U, 0x3d3393433daad0c3U,
  0x3e0164a23ce9c2c4U, 0xbd91cedc3d509c4eU, 0x3d020ec0bdb04eafU, 0xba4973c2bbe8add2U,
  0x3c8d490bbcda337cU, 0xbd927a02bdce431cU, 0x3d875c09bda70834U, 0xbd2fdc03bdcbb9b2U,
  0xbcd2cc59bcc9cda5U, 0x3dbac4033d61c8d7U, 0xbd8dd10d3b91facbU, 0xbc7f83fcbca7ab7eU,
  0x3bb9e607bce8766eU, 0xbdc12f86bd11cb22U, 0xbd34b8ff3d8a3234U, 0xbd8b5b153dc8cdb0U,
  0x3d7fd2483d64c9c3U, 0xbe0346cbbd03c85fU, 0xbd5303dcbd65939fU, 0x3d4b43623e2f5243U,
  0x3de6cab03d0ffd00U, 0x3dd57c7dbdbcd23cU, 0xbd222ce2bd731c24U, 0x3e62be58be1a962aU,
  0xbdd890bebe241aedU, 0x3d9df2713da540c1U, 0x3e16de04bc2c2488U, 0xbe3eef043bb82036U,
  0xbd5c1077bddb3379U, 0xbdef0955bd900f22U, 0xbd54230abd038bd7U, 0x3cec5e093c923910U,
  0xbc232316be2e90b6U, 0x3cdd2962be26fe56U, 0xbddad403bed1c5a9U, 0x3d498380bdec159cU,
  0xbd8f825d3d8a4f88U, 0xbd0c00a5be0ae529U, 0xbd02314bbdae2ff7U, 0x3e1269f53d1cb95bU,
  0xbcc490b6be1f2874U, 0x3db21b8f3c8ccfc2U, 0xbdbed13fbd089be4U, 0xbd85ad27bd90de77U,
  0x3df63ea8bd916cb7U, 0xbe74ebebbd02870fU, 0x3d5fed3c3cbffa89U, 0x3da78029bdeabae4U,
  0xbd5032a1bcf2afafU, 0xbd8fe74f3c36f541U, 0xbdab1461bd5cb809U, 0x3de8253bbe213f94U,
  0xbd7af1d3bb36f535U, 0xbe0b6be7bd18362cU, 0xbdf82df6bdbb40b0U, 0x3d2a815e3e1a25a3U,
  0xbdaee6463dd8e3dcU, 0x3c3db1d8bd0c451fU, 0xbe1a9f2fbdb26b0fU, 0x3c4fe717bd73a568U,
  0x3dee0ceb3da3181fU, 0x3e08b1343c87ba26U, 0x3e3d69123d4ba446U, 0xbdc3b6003ce1e77cU,
  0xbd112c0fbd20c04eU, 0xbdbe56443da118acU, 0x3ddb4a94bda4fc03U, 0xbd772c11bdf16112U,
  0xbead43a13b7e38cfU, 0xbe6ea206bdb301f0U, 0xbd0710c63d85d7aaU, 0xbe280823bd347274U,
  0x3dde80f93c7f88acU, 0xbe8b2a9abe2920e8U, 0x3d7bd3573e09b695U, 0x3da940343e0621d2U,
  0xbd5c5175bd44ed86U, 0x3d6248173ce71456U, 0x3d9d875d3d968404U, 0xbdafea0b3cf835f4U,
  0xbc5b1bbe3dd67afbU, 0xbe0dac7ebcdc1de0U, 0x3c1cebf23d4b62b6U, 0xbbe55738bdfa8d7dU,
  0xbe28b89cbe2341b4U, 0xbe3b7d08be004007U, 0x3d56b366bd3ed457U, 0x3dc299d33e33947eU,
  0x3d5751c2bcc82c0dU, 0xbe9068f83d8f86ddU, 0xbd899e073d890884U, 0x3cdd859fbe405325U,
  0x3ca17fb8bdf8419aU, 0xbc907beabda969e7U, 0x3dd2f144be0e875cU, 0xbe96a8053e0fd100U,
  0xbe1b5de13d804241U, 0xbde5572bbdeced75U, 0xbdee455f3e1aa783U, 0x3d3c36253d596b79U,
  0xbdb9bc91be7df5aaU, 0xbd9ea363be81418fU, 0x3d3257f4bd9f099bU, 0x3d0b8be6bd9ff6ecU,
  0xbc9b0ee23ca42252U, 0xbe3e7a493d21d258U, 0x3ce653153ddb6f4cU, 0xbda4655a3defb73eU,
  0xbe4770cabe11401bU, 0x3e8080743d6e514aU, 0x3cdac5f23cd76c9cU, 0x3d88c953bc752b56U,
  0x3d161276be6eb167U, 0x3dde4fb2bc07be78U, 0xbd746718bd21cd25U, 0x3d465a83be5ce371U,
  0xbad7bd2ebdbe9662U, 0xbe1089e4bc31e361U, 0x3cf994ccbdb43bd1U, 0xbd96f43abdee1667U,
  0x3c027cc03d648340U, 0xbd1609e1bd5e00aaU, 0xbdf27908bcb1dc21U, 0xbe24c082bc98b545U,
  0xbddaa5fe3c9a8412U, 0xbbb53c1bbdd2f5c2U, 0x3dc73aa6bb055277U, 0xbd30ea5bbdcef721U,
  0xbc83f2b13c9ef3ebU, 0xbd80abfcbd68c532U, 0xbd5ff45f3db0553aU, 0x3d39b035be04f49dU,
  0x3d89c789bd9b5992U, 0xbdbf11723d13fe54U, 0x3d9b0715bdc2fc6fU, 0xbe7eaf3bbe3376d7U,
  0xbbc3875b3d0d3046U, 0xbcdbfb42bbef7c96U, 0xbe42d0e63d431d62U, 0xbb3088243cdb0a72U,
  0xbcb7fa3b3d56508fU, 0xbcd11e71be4f46ebU, 0x3da1a95cbd5264fcU, 0xbe62fa953d650184U,
  0x3d9d39aa3cb18bdeU, 0xba4913233d80025bU, 0x3c9622343da7a89fU, 0x3da46ddf3cc29e75U,
  0x3cef1230bd504450U, 0x3c1bd2d83d0c0362U, 0xbd5df8a0bd973dfbU, 0x3dc8f409bbcb9541U,
  0x3d6646453d1ee668U, 0x3d8c8c983cc9b62dU, 0xbdb2adb63e061ecbU, 0xbe062a4b3db0c4d0U,
  0xbd5ca84ebc5ae4a4U, 0xbd9d1d453d1f1e65U, 0x3d91066bbc5b7909U, 0xbded970a3e035df5U,
  0x3d8b66303b5f052aU, 0x3d4767b63c85a56aU, 0x3d804e88be312da2U, 0xbd0664953bb37e96U,
  0xbe06c1c6bdae961bU, 0xbdab3090bd584161U, 0x38dcf87fbe343dceU, 0x3ddf24853ad6f9e5U,
  0x3d468b1f3d7e8f8bU, 0x3db458f4bd7be88eU, 0xbe0378d43d239e26U, 0xbe4d9ff33cc43546U,
  0xbda75c8dbe7db775U, 0x3d3c3f8ebcf7b00fU, 0x3d4239463e1f3a76U, 0x3cd9fb5c3da11076U,
  0x3cef1602bcc8d5bcU, 0x3db33de1bd499e06U, 0xbe0eba063cbe4521U, 0xbd2ee915bcefd9b7U,
  0xbe2e7e2cbd98b202U, 0xbe460fa0bd1363ddU, 0xbd0afe29be1cb306U, 0x3b3f1df83e34f001U,
  0x3d559747bd02ca38U, 0x3d88dce5bdc8f371U, 0xbdfd72583dceac01U, 0xbe1252f2bdb19b79U,
  0x3de5388dbdd6dc9eU, 0x3d7e04dabdbe8febU, 0x3e1c57a13db809f7U, 0xbd2b96b63dd6fc0dU,
  0x3cd231d53e282172U, 0xbdd39bd7bccfe142U, 0xbde6b6173e2922d1U, 0xbcd028173d2de706U,
  0x3d54b1cbbd0f3631U, 0xbe084b38bdfa63c0U, 0x3e00ecefbdebfbb4U, 0xbe643502bc9fb829U,
  0xbd56f656bc2c843cU, 0x3d2cb7643b5c1b34U, 0xbe0b48de3d61a14cU, 0xbd3e5dcbbd544ed9U,
  0x3d4f9e7fbd699bf2U, 0x3e1c7068be3de649U, 0x3e1bd099bd4018f3U, 0xbe0549f43defdfa7U,
  0xbe144888bd7aedabU, 0x3d839b963cc64097U, 0x3d90297f3d6bffe7U, 0xb8a8787a3d52a2b7U,
  0x3ce2fe65bd147604U, 0x3dcfb4833d7c7a17U, 0x3e291e043d887506U, 0xbdf2424b3d40b6e9U,
  0xbd5d0d69bb73ff9eU, 0xbcf44c2ebabc128cU, 0x3df53bf7be2a87bbU, 0xbd169a4f3d37b052U,
  0xbd19bbc0bbe962faU, 0x3d436da73dbca0c8U, 0xbd0015393b5fa195U, 0x3db6a6f2bddebcd8U,
  0xbe02f428bc97bca6U, 0x3dfc43ffbe06da85U, 0x3d23f68abae1f4a6U, 0xbbff09f73d69249bU,
  0x3c428f9bbd98e846U, 0x3bc32c103da8f576U, 0xbd425ebf3d92b1c4U, 0xbd746a213ca8ed0dU,
  0x3b5fb926bdd587b7U, 0xbd9c01b2bd24f23dU, 0x3d9dd3f5bdf811fbU, 0x3ca5eaf93bbf08ceU,
  0xbd220e91bcdf7a08U, 0x3d9677d339a203c4U, 0x3d3674643d2abe34U, 0x3e1cc4dbbd959aa4U,
  0xbe213f7f3cf2fffaU, 0x3bb16c60bda00432U, 0x3cfd790e3d5d8773U, 0xbd55f05a3d557fd8U,
  0x3ca568d1bd2e7296U, 0xbc2a9c5f3dbdb55eU, 0x3c2d32bc3c9725a6U, 0xbe15529ebd0caef7U,
  0xbd3cee7b3d001d9cU, 0x3ba5289bbdbfcfb0U, 0x3d57ac1bbe3593b5U, 0x3acf7d823ccfea87U,
  0xbd80c7ccbd9b4516U, 0x3e2124f83dabe884U, 0x3b6bf8af3b93c1cfU, 0x3c869ec4bbdc08f2U,
  0xbd513a43bd953864U, 0x3c785749bc66f71bU, 0x3d9ce0a63cd27258U, 0xbdc2636bbca1452eU,
  0xbd201d793cabeed5U, 0xbd31ee5f3d8ea517U, 0xbd26146fbd700af2U, 0xbd69585ebd119d2cU,
  0xbd0c20403d71f7dbU, 0xbd97de6abd803756U, 0x3b9831b7be2bf8ddU, 0xbdd6fd09bd8406dbU,
  0xbbe167aabc15a461U, 0x3d810236b9d32af0U, 0x3af6a0ef3d2f4fe2U, 0x3dd39f98be16cf4bU,
  0xbc806197bd28a44eU, 0xbd15a507bca4c546U, 0x3df9beb83d519eaeU, 0xbddeb6d8bd6af16aU,
  0xbdbe4935bc38ac8cU, 0xbdc595173dd3babeU, 0xbd89374ebdc7729eU, 0xbd8f4892bd056db3U,
  0xbd32afdd3ca49ae1U, 0xbdb0c289be2879e2U, 0xbcf63d0bbe1b9809U, 0xbcd288b03c262371U,
  0xbc1970c4bd850ee1U, 0xbcad6e02bcc9ec86U, 0xbc98e650bcd17eb7U, 0xbd6037b0bdf549e9U,
  0xbd2fc17f3dd8316fU, 0xbd2fdb91bca5c59eU, 0x3cd4d3393d86254fU, 0xbd8feadebc612b29U,
  0x3c502ae2ba5e852eU, 0xbc402a2d3d40002aU, 0xbd86f1eebd7a7341U, 0x3cadfc8c3b81d056U,
  0xbb9a16d6bc85e09cU, 0x3d0d4c9a3c0c4b70U, 0x3c1e485abd903d32U, 0xbd23179d3c6e1a86U,
  0xbb512e97bd1030b2U, 0xbd7ce37ebd49d22aU, 0xbd2481aabdc0b86aU, 0xbe1c5104bdacf1fdU,
  0x3c679c52bd4386bdU, 0x3bc2a18e3da93281U, 0x3df4bb903d0a74d7U, 0x3c0d77cbbcc68c97U,
  0xbd0ca29b3cbfb541U, 0x3d15a7e3bd1d9854U, 0xbdc44b523d653dfeU, 0xbacdc3c33e099688U,
  0xbda2bf023d70b6c9U, 0x3daa4e7c3d7bc87eU, 0xbbb8ef10bc8fb5b2U, 0x3c5e2f51bdbddf39U,
  0xbd0000b43c2313a6U, 0xbdb8f6ba3dca3049U, 0xbe0599a1be696005U, 0xbe2acb5abe568e1aU,
  0xbda32fb7bd974edaU, 0x3d26abb0bd57bf5bU, 0x3cffb2adbb9aa45cU, 0xbcfaa8193d3f0d5dU,
  0x3cef03a53ce8c8f5U, 0x3d9ccd40bd298b89U, 0xbd16e1b83cdb9e13U, 0xbdb8e3eabd1f2eacU,
  0xbc12317abdad1764U, 0xbc445d9e3ca06b49U, 0xbc808e31be336414U, 0xbd8d4946bc567aa6U,
  0xbdd81234bd2a0477U, 0x3d1b22803d2141a9U, 0xbd993fe2be193dbaU, 0xbd39eb41be82d463U,
  0xbd4d0ef1bd1d149cU, 0x3d5b18803ae6d428U, 0x3d0318473cf84e0dU, 0x3cd02f763cdd7e59U,
  0x3c8bdfef3cafdffbU, 0x3da81c153d6e8f17U, 0xbd1a6f8bbcc78b69U, 0xbd7a1ca2bda6a421U,
  0x3dcd1ea9bc0faf9bU, 0x3d5334e73ca0c44bU, 0x3d9240a2be19e35aU, 0xbd24e6673d29cc2cU,
  0xbd8aacbebc152e4bU, 0x3dc9db9d3d108d0eU, 0xbdb304713c9d5420U, 0x3dd108cfbe4c1002U,
  0x3c0648d33cd7356aU, 0xbe1ad7d73ca8906dU, 0x3d7557ddbda21c5dU, 0xbe8031fc3de55f03U,
  0x3c83d8cebd0bc62cU, 0xbd2605cebb1ff4d6U, 0xbe3d4c303d29a025U, 0x3c48398f3d080450U,
  0x3d77b775bd356b80U, 0xbd93cee5be5bdda6U, 0x3da819953a7a6a6aU, 0xbd885175bd9394fcU,
  0xbe07c1f8be1a4897U, 0x3cfbef01bdb724efU, 0xbdd2a5723e11f3b9U, 0x3b3614413d864ecfU,
  0x3d3cacbabd156fc4U, 0xbdfaaf5e3db11595U, 0x3dff64b2be146288U, 0xbe39fe46bc928b9aU,
  0xbdc28fcebd0511ecU, 0xbdc97e77bd888d74U, 0xbe412f2e3c65d87eU, 0x3b0ca3d23e3d7be6U,
  0xbda6245cbe1aad09U, 0x3d027031be469fd0U, 0x3ddccf883d78ad1eU, 0xbe0ed905bd9a1ffcU,
  0xbe0dd57cbcbf8195U, 0x3d70e07a3de2c35bU, 0xbd300d34be5f9d02U, 0xbcfc99b43dcd390bU,
  0xbc24b9e6be34db9aU, 0xbc7c6a383d0c3859U, 0x3c83354cbdd745d0U, 0x3d1e7f73be04541eU,
  0xbd496a013a093623U, 0xbdaeb2f3bd2ebe12U, 0x3b49138dbd891e02U, 0x3c94e58d3cc2d2acU,
  0xbd66c6bbbde79ee4U, 0xbd114eb73d0003fcU, 0x3da9e9c7bca11b9bU, 0xbc4d888dbceeb7f2U,
  0xbdfbaa783d542aafU, 0xbd3441b83dcf2738U, 0x3d919e24be6c5d11U, 0x3d07f969bda8fbccU,
  0xbd5a1076bde57d01U, 0x3d99f53bbd5cc50fU, 0xbd95e836bac306e0U, 0x3e30b94c3dc1df83U,
  0x3df6bccbbd2adf9bU, 0x3cce81c5b9ab24fdU, 0x3d5eff3c3a02a16dU, 0xbe025277be031320U,
  0xbda504113d35dc53U, 0x3d04cdbc3d0606fbU, 0x3d542302bdf42399U, 0xbe1c86fe3d60d36dU,
  0xbd66f934bdd272e7U, 0x3d82a537bd5b9f89U, 0xbd17b13a3e256836U, 0x3e57690fbdbdaf85U,
  0x3c486b98bd993c3dU, 0x3d4cc675bd0c5852U, 0x3d8000c0bd22410eU, 0xbbf71b45bc1e4918U,
  0xbc0b8887bd2ca9a9U, 0xbd5b015d3c9c5258U, 0xbd77a051bda11048U, 0xbd24885c3c9aae01U,
  0xbe18fc663bf25856U, 0xbd3fa80ebdf2386dU, 0xbd46873bbd49c368U, 0xbe2972e6bd15a2b2U,
  0xbbc3c966bddf8535U, 0x3da91e75bb182844U, 0xbc2dee6b3dc9166dU, 0xbc61c4cfbd706b52U,
  0x3d90c356bb8ed233U, 0xbdecb7efbc3b4f8dU, 0x3d5d60683c8e39dcU, 0xbe4ab0f43d5b5410U,
  0xbd76b3f9bd74a6cfU, 0xbd9d6a1a3ce0c2a1U, 0xbe451c67bd034749U, 0xbda0fa36bdae43fdU,
  0xbcd328d03d9361b6U, 0xbc6a61adbe57ad41U, 0x3c09f78cbda28b13U, 0xbd19f65e3d7a9512U,
  0x3cda36babd40a9b0U, 0x3dc9254d3d48f8feU, 0xbdc34af63db07f7eU, 0x3d8e8baf3ce2de8dU,
  0xbd222463bd76ed3aU, 0xbd79bf08bd50e24cU, 0x3d3fa9813d857efdU, 0xbdf611d03d700439U,
  0xbdd60f3fbdfc15bbU, 0x3db3a134bd46a34fU, 0xbbe448443dd5c7e3U, 0x3d6a930ebc9ef511U,
  0xbe3db42dbdbfa099U, 0xbde31737bdd1d8cbU, 0x3e2cdb66bd7eb753U, 0xbc2a34eabdd0f7c9U,
  0xbd6710623daf8650U, 0xbd8cfd14bdaa32c6U, 0xbbc346d9bdcd80baU, 0x3d8d8e2fbe12e216U,
  0x3c91f373bc19c494U, 0xbd90d1f83d6005c9U, 0x3dce33d9bad671a5U, 0x3cd8008fbc6ba901U,
  0xbd0c69adbd809fe9U, 0xbcecbf4dbd8e0a76U, 0xbaca499f3d8fa6c4U, 0x3da7bd43bd728914U,
  0xbe1a8a453d2f9cfbU, 0xbe00ccdc3d439da8U, 0x3dc669e2bc1d2d06U, 0x3d23f238bd9e509aU,
  0xbe0873f13d8abb72U, 0xbd97a790be01fc81U, 0x3c37518abdada3d9U, 0xbcb7cd69bd793568U,
  0x3d99ffdbbd56f8b5U, 0x3d58c8ff3e08cc9cU, 0x3ce3bc6b38e44019U, 0x3e11e012bd7a8e4fU,
  0xbd45e780bdbf44e2U, 0xbd2433cabdcf8106U, 0x3c18f13e3beccf63U, 0x3d55ad71bd7c0641U,
  0xbe0ec0853e34e31dU, 0xbcf0a6f73c9b2074U, 0x3c444d2abcdbf074U, 0x3c2bb684bd22edb9U,
  0xbde98cb43dab44c4U, 0x3de9e0093b8fd3ceU, 0x3d8a71933ce8955fU, 0xbe132c31bd4f31b1U,
  0x3e340d3bbe7075bbU, 0x3d5133203def3e28U, 0x3e325b61bd2f0fe0U, 0x3e1ec533be1058efU,
  0x3d50a60cbbdee7e7U, 0xbc101149bbf14cafU, 0x3dbd4e76bba37c7bU, 0xbc061592be713203U,
  0xbe5e41223dcc1a57U, 0x3dedc726bcc00ab9U, 0xb903953cbdc9ede3U, 0xbe0774c43e081b0eU,
  0xbd356ab6bc09da2aU, 0x3dbb36d93cb9926fU, 0xbd40ed413d861ec3U, 0x3de495a0bdc56ed3U,
  0x3e1fae98bdcb64f2U, 0xbd331c8f3dfd7a4aU, 0x3def8f00be093600U, 0x3d25388ebe228204U,
  0xbe46d8dbbc82dabeU, 0xbd5ef716bd9631e9U, 0x3c6707253d9f6925U, 0xbdccbd30bddb5524U,
  0xbdbe0031bd3897feU, 0x3d83b265bd25708aU, 0x3ae375233cf83ff3U, 0xbcfb58ba3dc9482cU,
  0x3d4abd9b3d7da18cU, 0xbcfd6ca73d3f24b7U, 0xbde629c13d34f6eaU, 0xbde2bba3bd72b0c2U,
  0x3df7b37abdf542f7U, 0x3c16035dbb170d08U, 0x3c287d70bddd2c7aU, 0x3c2ba433bdf1d44aU,
  0xbdb1acd03db43c7bU, 0xbdfbbbe5bde7c2a7U, 0xbd3310d03e1160aeU, 0x3cbcc83fbdb522c0U,
  0x3beb6bb13bdf0d22U, 0xbc0d180dbe29b5adU, 0x3c12d8f53dcb2022U, 0x3d89e98a3df4c221U,
  0x3dccbdd03dba48cfU, 0xbcd19f7abc945f89U, 0xbe5c45b63c7ac9cdU, 0xbd76f9b4bddcbce4U,
  0xbda691fa3d072f7eU, 0x3e18b6f3bdc8a082U, 0xbe0d39933d60dd55U, 0x3bd2b580bd727eb2U,
  0x3d99064b3dbb7a53U, 0xbe121ffbbd6a62f7U, 0x3d96c7adbcd73ba1U, 0xbdd60eb1be40c95fU,
  0xbda675f43d9d9a7dU, 0x3da6022ebdcea3b1U, 0xbd1e60b3bd08b9b3U, 0x3cd66996bd096107U,
  0x3d2d38ca3ce1083bU, 0x3d2e6606be58ac9cU, 0xbd1afd2cbde7f791U, 0xbda7998ebdd553a4U,
  0x3c9ca56b3daeaebfU, 0x3d266ba4bd91bdccU, 0xbe1a59a5bc2e9c5dU, 0x3d05551c3db98dc0U,
  0x3d6083373dc9dd9fU, 0xbe1b49dfbd978467U, 0xbd810d453d060b20U, 0x3d8c4d95be31ee21U,
  0x3b9834563d04c1d8U, 0x3d84afa7bcee3d1eU, 0x3ba57ef63dc6e9bfU, 0xbdab38733cc42d84U,
  0x3d2b434fbd06ad88U, 0xbb69ff4cbe6fd534U, 0xbd7095a1bdc56865U, 0xbdae71143cd48ac6U,
  0x39ca3669bb6094e9U, 0x3d9ba249bd1a8f1cU, 0xbe447a9dbe0a102eU, 0xbc6157133cd4fbccU,
  0xbd22a1d53dcbf2f7U, 0xbe549483bdb6ebf2U, 0xbd6717a23c1af817U, 0x3dbfab75bbf6a381U,
  0x3d04c63b3c29f07aU, 0x3d26cc83bd8f2f3dU, 0xbdb098ac3db37e67U, 0xbc0e2b313d09e675U,
  0x3dd6257d3cdfa316U, 0x3db665efbdde9ef8U, 0xbd20c578bd41c884U, 0xbd4d7cb9bc42fb0fU,
  0x3c4fa9373daac229U, 0xbd716688be127185U, 0xbdf25be0bd26bd8cU, 0xbe15a3dd3d059be9U,
  0x3d5fb6383da6cc16U, 0xbdd16407bd119198U, 0xbd9a3c2cbd867bbbU, 0x3d15d3ffbd34a55cU,
  0xbd2ffdca3b011538U, 0x3cec0735bd16bed0U, 0xbd402ec13cb0806bU, 0x3dad9f60bd85e8efU,
  0x3dbc3ca13bd1c3a9U, 0xbb8eae19be55fbbbU, 0x3d7bd04d3e0306e0U, 0x3d3143023c23db15U,
  0x3d5e693b3caa81e3U, 0xbca2569dbe08c5d2U, 0xbd9cf493bd8ce617U, 0xbe42d0c8bd58f020U,
  0x3b57e6c83c4c1c6fU, 0xbe1421c8bba9921cU, 0xbda1f693bdba8620U, 0x3d3082a5bcabd55aU,
  0xbdc4ffb1bc976844U, 0x3cefb67cbdd98415U, 0xbd8f9c273ba83572U, 0x3d139029bd86abd3U,
  0x3c3f2716bd3472fbU, 0xbb9bc323bdc262fcU, 0x3c51607c3d238102U, 0xbd0ffe383d4b13f8U,
  0x3cbcc2243cd9f36aU, 0x3bc3e0b0bd6ff2cfU, 0xbd2fb1babc8a5d71U, 0xbe10190dbdbbf3ecU,
  0x3ad1af2fbd958965U, 0xbe08176fbe01de7cU, 0xbd935ec9bdabf248U, 0xbbc5a49cbce7d00aU,
  0xbd3307bfbbec6ed1U, 0x3d38f3433be9570dU, 0xbd97c9d1bc264b4cU, 0x3b941fe3bc1300d6U,
  0xbd580e26bd4c4187U, 0x3d22380ebad40a93U, 0xbd981acfbe019f94U, 0xbca483be3cd0e5acU,
  0x3c9ed8443daac1ecU, 0xbd8586273e012405U, 0xbc7794e1bd49eaf0U, 0xbd4d8fe73db29d8dU,
  0x3da0ee16bcf0eb09U, 0x3e67157b3ddc2fdbU, 0xbda38c1b3d9d192fU, 0x3dc2d4853e1fc57dU,
  0x3d1e5186bd5da4e0U, 0x3e371a683d3735b9U, 0x3e4285bb3da90829U, 0xbd378a2ebe0d5291U,
  0x3d36462b3de372ddU, 0xbdbc14183df77631U, 0xba591584bd3ebc5cU, 0x3d1e71ffbd655fabU,
  0xbd89f076be11ecf9U, 0xbda942b6bdc0d2daU, 0x3c9b27afbd586b27U, 0x3c569aa3bdb67dcbU,
  0x3c962c833d4670d3U, 0x3da032ea3db5ceafU, 0x3dbc6df0bd854f9eU, 0x3c1c6babbe0f246eU,
  0x3cf35b79be318c3fU, 0x3d8032e83afdd89eU, 0x3d9b6aa4be3329f2U, 0x3e09f7c7be5f681bU,
  0x3cd6052c3dea5a33U, 0xbe4be3e9be038650U, 0x3dd2557abe032b1dU, 0x3d12e42cbe613cbaU,
  0x3d30c263be33fb3bU, 0xbdf4a621bd903416U, 0x3d6e6cc63d0179f1U, 0xbdea6103be0cb978U,
  0x3c8a2f26bd8bd69bU, 0xbdb80cc1bd538b1aU, 0xbbcb5aa5bdf3a5ecU, 0xbd96f958bda56186U,
  0x3dbe08003d3f5d9eU, 0xbe2ac11cbc9bfa55U, 0xbd872887be018390U, 0xbd05feecbe3bcff5U,
  0xbe22c218bc3cf28eU, 0x3cf87abebe45d46fU, 0xbc2923d7bd7cea01U, 0xbe888f1bbe301ffdU,
  0xbe6f5b0cbcb3a1c7U, 0xbd309dcebe79d313U, 0xbdebd393bd29701bU, 0xbcdc36debda871ceU,
  0x3d38603d3de489cbU, 0xbd0c7c5d3d6fe697U, 0x3d76b0c4bdbe4d9eU, 0xbe39bc62bd1430fcU,
  0x3d1a4f19be0318a6U, 0xbc6ee2b23d93a29cU, 0xbcf12ddebd6ea8feU, 0x3e1bfbc33d01a094U,
  0x3e1a57783cea797bU, 0xbc54fe63bde85827U, 0x3db01a1e3d44da17U, 0x3e3a1ae3be50597eU,
  0xbd1e6e12bceaef19U, 0xbe2be85bbd9c3daeU, 0xbd7500b3bdabc1adU, 0xbd46d847bdf60b28U,
  0x3e0cdfbd3dd1fbcbU, 0xbdc166febc8f5ad6U, 0x3e0861d9bea3fb8cU, 0x3e597724be371849U,
  0xbc85d200bccaf9eaU, 0xbda6d78a3db59645U, 0xbe826f19be145790U, 0x3e5c45bfbe3e199fU,
  0xbb187851bd6605d3U, 0xbe87e8533d295f65U, 0xbe07ccd73e355a08U, 0xbe7c8fbdbd671787U,
  0x3e19684abd1b678bU, 0x3cf5a1f83cf294e7U, 0xbd4417163e1192f0U, 0xbd5ea909bc952585U,
  0x3cbc5fbb3ccbcf70U, 0x3c6aa309bd0cb1ebU, 0x3ddd8fe2be5e0ef9U, 0xbe1c36083dd38498U,
  0xbce2821ebe07b7a7U, 0x3da204f1bc8e5598U, 0xbd623e9c3d09811eU, 0xbc98d3d83c8a1e85U,
  0x3b9a27abbd858113U, 0xbe7be55f3e332605U, 0xbe3833603d9f2e3cU, 0x3e173269bdccad17U,
  0x3ca11de23c955da8U, 0x3da464183cb57ff8U, 0x3d8a0b41bd684dbaU, 0x3d1f6dbabbc5e77aU,
  0x3d52183cbc4c812fU, 0x3c3db64cbbe0b089U, 0x3bcdb9053a850c14U, 0x3cfbda103d9cb126U,
  0x3d9d497d3c873d94U, 0xbc85ecd33d073c22U, 0x3c623a0e3d936d12U, 0x3c04e45e3d87384bU,
  0x3d311c673ccdeb68U, 0x3cdbc5cc3d9c1b16U, 0x3d2cabcebc263f45U, 0x3d89f2c13ddcd8baU,
  0x3d0bb9433bb1c361U, 0x3d95e65fbce234a9U, 0xba6fc8c1bdb73aa4U, 0x3d7642a9bad47987U,
  0x3cfd77593be33738U, 0x3ca4cb1a3d2db9baU, 0x3d8413debbd4d9c1U, 0xbca37cce3d04e6f1U,
  0x3d9f94f53cc0a6ffU, 0xbb1211213d949b5aU, 0xbb0563443dbc8240U, 0x3beacd81bca6d5c2U,
  0x3d4f00d13d18aaf8U, 0xbaa05af53d12d980U, 0x3d40ed0fbda80aaaU, 0x3d3e42463dd0cb9eU,
  0xbd07be1d3c2586f3U, 0x3d626eb1bd2ff5e7U, 0xbc571205bd86f7bcU, 0x3dc53c6c3c3f3af6U,
  0xb81986e6bb04f40eU, 0x3d2df8a93d83e96aU, 0x3d41b3c1bc71c026U, 0x3ca26f273d66ec92U,
  0x3c358f4c3b92324fU, 0xbc753f883da4444fU, 0xbc787d4c3d939ffeU, 0x3cbcc9bc3d17b349U,
  0x3d10afa33c4fda0eU, 0x3d5210413d356e0aU, 0x3d547b3bbc8b98e5U, 0xbc15b0c33d451fc9U,
  0xbd345788bad0d1c3U, 0x3d9b069d3c892077U, 0x3db5bc8bbda3f52fU, 0xbd482ad3bd80229aU,
  0xbd92260ebd7a2668U, 0xbcb9f2d4bcc50190U, 0xbddb2c4a3c8c541aU, 0xbd3a5e533b5bc2ffU,
  0xbd1527953d511078U, 0xbcd63683bd8070eaU, 0xbdbae99e3d1e4829U, 0xbc27cb663c93805aU,
  0xbb71eb92bde28e74U, 0xbd43eefd3da5fe85U, 0x3c9f52843d814991U, 0xbd20b40d3ce27b14U,
  0xbc3a4e90bcd96be3U, 0xbd0745a1bd14e6b4U, 0x3d6b3e1fbe2a29e3U, 0xbdb9a378bd5b43f4U,
  0xbe3de75bbca6bc52U, 0xbd6d9578bd1dc0b6U, 0xbe3cc5c03d3f2cbcU, 0xbe25abf13d46f23eU,
  0xbcb57f6e3c98133eU, 0xbd79bd8fbe0898c6U, 0xbd87f272bcecb298U, 0x3ba12cff3e1be97dU,
  0x3cd0590bbd2de24cU, 0xbcbb46ee3dacc2d3U, 0x3b75fc183d282ca2U, 0x3d7943bdbbb9d2f4U,
  0xbd63ba703d36e84aU, 0x3d73920cbdc73c1eU, 0xbc9aa770bd25c4ffU, 0xbd6f080b3ba9bf34U,
  0xbe0f69bdbd085f68U, 0xbcc0fac53b907540U, 0xbda9dd493d2a9806U, 0x3b4593d9bc0f4235U,
  0xbb5fd740bdb55defU, 0xbd9dd6d9bde21c77U, 0xbd05c83bbd68aa1aU, 0x3d4bed02bd825622U,
  0xbd312f8dbc4ac9ceU, 0xbde9615c3c524bc6U, 0xbc0a8a753d651edcU, 0xbcda6e733c90e99cU,
  0x3e059a543d253af0U, 0x3cf9d20dbae35534U, 0xbd80e334be57df4aU, 0x3d8bff6f3e81220aU,
  0x3d8ba7243ca56c26U, 0x3dc0a56a3b9e3f7aU, 0xbcd539e63aecd1fcU, 0xbbac90dfbe8d1269U,
  0xbde168d7bdc94211U, 0x3ce932cf3d3b338cU, 0x3d04cd47be824c63U, 0xbe48af693e128243U,
  0xbd779f13bddb95bdU, 0xbe708dcdbc2683d2U, 0xbe1df5e63ddc96f2U, 0xbc80848ebe051a02U,
  0x3d5d69463e0fde9eU, 0x3e5d3641bd887c20U, 0x3c81a934bdc85b35U, 0x3d9315313d785e7bU,
  0x3d848df03cc01339U, 0xbcb9f66a3de1c81cU, 0x3d8f0ab6bdfe300bU, 0xbd9193f9be01adbbU,
  0xbdee59f3bdf6b903U, 0x3da9fcd43dff5337U, 0xbd73c484be19b995U, 0x3cc98bfbbda3a5d3U,
  0x3db8c6e2bcc20e9eU, 0xbea278d83cbf49dbU, 0xbd93ce503c53c603U, 0xbaa777dbbe15fba4U,
  0xbdafb1773d014f2dU, 0x3df9ca39bd6cfe32U, 0x3c9382e8be3c8638U, 0xbceaf28b3c384e17U,
  0xbd8c989e3be37e41U, 0xbd8ef47f3df0b12dU, 0xbdd59077bd1ff053U, 0x3ddc424d3be9f99fU,
  0x3db896a6bc2dc398U, 0xbd8e1722bdce7272U, 0xbe3a9186bdc35991U, 0x3e052146be164173U,
  0x3cfe31d83a688362U, 0xbe03b3223de1d8a7U, 0x3d5439fb3d5353c0U, 0xbe7a75f6be10bc00U,
  0x3de0155f3954c0e6U, 0xbe0ba3353df9a897U, 0xbd67acadbc85206cU, 0xbc24b1d63d09f932U,
  0x3bbb2ef43ca3d208U, 0xbd96c1e6bd250bfeU, 0x3bf0f877bcabdd95U, 0xbdd2afd9be137edaU,
  0x3e11db89bdd01239U, 0xb8f7aa273d338828U, 0x3cd7b229bda1b879U, 0x3cd1feb13d643ee0U,
  0xbce24b7a3d5cfe2bU, 0x398ecac6bcad0aa3U, 0xbcac89d43d2869f8U, 0x3ddc5d523d1a1aafU,
  0x3d5830d2bda48646U, 0xbe38f7fdbc31169aU, 0xbccbf61cbc44f9daU, 0xbd3fbf1dbcc71bf0U,
  0x3d861ce83da2d48aU, 0xbc539389bc3b9728U, 0x3e03cda7bc8db555U, 0x3d224ee13e18452dU,
  0x3cbf89f9be8cd051U, 0xbcbfeb483d4ad3a5U, 0xbd7c55c1bdb83cc9U, 0x3d53e562bd936221U,
  0x3dbf68a53c975c67U, 0xbd59a9a8bcaa02b3U, 0x3d12d110bd507be1U, 0xbe21e7903d0d00b8U,
  0x3d727a92bdfdc306U, 0xbe022f4b3c1f8000U, 0xbd7c64823b6abfaaU, 0xbd8a11dabcf5944dU,
  0x3c2551033d98fc08U, 0x3d4b403d3d0d5affU, 0x3d514f32bc982af5U, 0xbde45ee8bd957b7fU,
  0x3c1518d8becc7785U, 0xbb810c243d86f073U, 0x3d11f7e2bdf8aec8U, 0xbd955ad33d3adebcU,
  0x3da2a0193dc3f2ccU, 0x3a3198a4bc837f69U, 0xbc0c64bb3cd9d52dU, 0x3e5267ecbd0d48cfU,
  0xbce116433e2bac3cU, 0xbda968c8bd5facbcU, 0xbdc90a7d3e1e48d5U, 0xbd54d8893c1cda05U,
  0x3c0a4a13bc712368U, 0x3dbdaa7abda59df1U, 0xbc8ca7bbbd591fcbU, 0x3d39a7433d4ab690U,
  0xbdc56db5bd38e5cbU, 0x3d21e3ce3e838a8bU, 0x3d03124ebd4e9d03U, 0x3d2c14cfbe092141U,
  0x3dc1923fbc68d55cU, 0xbe43846abdb17c57U, 0x3c560785be824d03U, 0xbe4824a03d973950U,
  0xbd1b0f4cbd5b76d8U, 0x3d251124be04828fU, 0xbd93237dbddcddb1U, 0x3b04c0093a8795d3U,
  0xbba1dda3bc0719ebU, 0x3dcb893d3d1d5d97U, 0x3ce4b28b3c2ac3deU, 0x3d9ce925be5e80c1U,
  0xbe090e53bd48a125U, 0xbcd737503db518d7U, 0x3c63627cbe1a4e50U, 0x3dc42a7dbbb26db3U,
  0xbb060dcc3de8bbc8U, 0xbc878c1a3d4189e1U, 0x3d4ad18b3be6bf28U, 0x3daf61b8bb83c573U,
  0x3d569d18bda2186cU, 0xbc9f3a48ba754cc8U, 0xbd06352cbdc24c04U, 0xbb801791bc8eec14U,
  0xbd0dcc45bd712480U, 0xbd5b50cb3bd85eebU, 0x3cc164eabd6cf0b0U, 0x3c28df1dbe188413U,
  0xbe62c494bc8649d3U, 0xbc685c70bca4abdfU, 0xbcf2593fbd9ecec2U, 0x3d4465ef3c9c0b40U,
  0xbcf9a5dcbbb33cc8U, 0xbcc82dd13d86c517U, 0x3e020ffd3c793053U, 0x3d831e1a3d17f9c5U,
  0x3c1bb47e3cdea218U, 0xbd95624e3d043120U, 0x3c8e0ce8bcc3f101U, 0xbd96fea53cfb2ce4U,
  0xbd3933223c74fdccU, 0xbd024d313abe1dbcU, 0xbbd9ac173cf5a3f8U, 0x3cd35c5d3cfe4e60U,
  0xbcea3929bc07b2d1U, 0x3a3f4affbd82e929U, 0x3dae5b8a3d1326a2U, 0x3da17a46bdf7ccbcU,
  0x3cdcc9143d4b02b3U, 0x3bd114943d0f8f68U, 0x3c976c3ebe4a9f4fU, 0xbdd180d1bdc04f17U,
  0x3bccc6723cb1901cU, 0xbc9ca7453b06f10cU, 0x3ce9ad1ebc3ba80eU, 0xbdb84f88bd0b3d72U,
  0xbd3fd659bd8de1eaU, 0x3c87c1df3b025a43U, 0xbd13416bbcbb3992U, 0xbd6d76cf3d157f7eU,
  0xbdb0f74dbdef0853U, 0xbcd90d8fbdb3978fU, 0x3c952d553b9c061bU, 0x3b3a8a02bdefbb47U,
  0xbd331cd5bccf4933U, 0xbd820981bd034324U, 0xbb227a6fbe0fd560U, 0xbcaa551cbe07dd37U,
  0xbd7c68a93db59fd6U, 0xbd295124bdafdeccU, 0xbd30a9d23d3633c1U, 0xbd6328b63cbb128dU,
  0xbd01a189bdc50853U, 0xbc0ea059bda5419bU, 0xbb3843cc3ce5331fU, 0xbd8619bebbc42f05U,
  0xbde4c82bbd9dae4eU, 0xbaf267913d1648a1U, 0x3cb2d8563ca03c75U, 0xbcd8a283bd0cb888U,
  0xbd9ef5b8bd0dfbf8U, 0xbded07b9bd8365e0U, 0xbd6fb847be297251U, 0xbdc9bb68bde146deU,
  0xbda98bdcb95aa33bU, 0xbd68ab25bd97e76bU, 0xbe116d6fbd24e2d9U, 0x3c841867bba257daU,
  0xbcefe0603e05326cU, 0xbd50ad613ddad4daU, 0x3d5627383d653053U, 0xbe7a5276bd3077c2U,
  0xbd019b9bbcef8e5eU, 0xbd2d8e503d46b67cU, 0xbc070f33bdb9a295U, 0x3dac4fb2bb398491U,
  0x3e1442a93d6e7fe9U, 0xbd1bcec0bd3aac33U, 0xbd6df0b33d958424U, 0xbd362e22bd426748U,
  0xbdae99d13d3c47cfU, 0xbe1c4f9e3d96773cU, 0xbd1f56583e3b14b3U, 0xbe493f1b3d5455bfU,
  0x3d8abed03d34552aU, 0x3c7e4cec3d61395dU, 0xbdac8fb63da307b2U, 0xbda805ccbd30a5c5U,
  0xbcf73b03be6af98aU, 0x3cb74370be17d184U, 0x3c13df4abcde75beU, 0x3dfe8d873dbb9a59U,
  0x3be71b833df188edU, 0x3d3af6bfbd891f5fU, 0xbe7f4ff7bde88e14U, 0x3d99d9773b73553cU,
  0x3d81b7fe3ce7d262U, 0x3c9cc61c3e12e373U, 0x3cf32dcabd0560d2U, 0xbdab4da7bcad48daU,
  0xbd1978fb3d568c53U, 0x3c8b477abcb5488eU, 0xbdffd7cdbd30267cU, 0xbcde7909bd0a1380U,
  0xbe02ae48bd0ce1b3U, 0x3dd70b813d79d5aaU, 0xbdd124d0be021ba5U, 0x3d18e99fbd6183ddU,
  0xbcdecabebd5f0c55U, 0xbe1f938c3c15f5d3U, 0xbea7e37b3cf586f7U, 0xbe1a0c073c718a0aU,
  0xbcc972283bb930cfU, 0x3db9c400be920917U, 0xbeb8908bbc854f88U, 0x3d1703f83ba11ebcU,
  0x3d1e65cbbd9401b6U, 0xbe00e0ec3e438655U, 0x3ca7b873be6dc51eU, 0xbd9fb438be2a3e6cU,
  0x3cc9458ebdaf3a84U, 0xbdfb2f73be604cd2U, 0xbd91205f3df756e8U, 0xbea2c043bbbeff5aU,
  0xbcefabc4be3d693cU, 0x3db25701bea84472U, 0x3d11032d3dc5efbaU, 0x3d7d35943cea5e73U,
  0x3c197fdd3c0c1ca5U, 0xbca364efbe2360f5U, 0xbd20eef33e465487U, 0xbd90e00f3de1fefdU,
  0xbd95207ebdcfe6b2U, 0x3d27d5a93e2018dcU, 0xbe13d374bdcaedc7U, 0x3e5d7e58bc8eff26U,
  0x3dba0331beb5a1a6U, 0xba63f1eabe244284U, 0xbd98481a3e15abd9U, 0xbe969fb33e6cdf32U,
  0xbe208032be1b00d9U, 0x3d879657be809757U, 0x3dd1c46fbd0149ffU, 0x3e0ce4153e3e9d9bU,
  0xbd62bbb0bcb40d49U, 0xbd00bf0cbbced299U, 0x3d692c283d1cf873U, 0x3e4e35413d727ab4U,
  0xbc494eedbd609b42U, 0x3c10091f3e0908ceU, 0x3d59ae1cbd08c6abU, 0xbde61fcf3dabb8a5U,
  0xbdbc5017be4afff2U, 0xbd86f5e63dbb04a5U, 0xbd69fbc43d9bc8edU, 0xbe7202723c9db1c4U,
  0xbd89385abd9be8adU, 0x3e0303e6bcfa7c2bU, 0x3e367364bea04297U, 0xbe06a5503d133d1eU,
  0x3da260a23d1891e6U, 0xbd4fc4863da353c4U, 0xbd0738d13d6ddc22U, 0xbc8ed4f63dc0bac9U,
  0x3cb25c9dbc8ba3f5U, 0x3e0165f0bc930298U, 0xbe0646123e13b450U, 0x3c85d20abcb31267U,
  0xbe17d2e73d824e36U, 0x3d47157cbd29e0a7U, 0x3dcf4c36bd74aa97U, 0x3e0eeaee3d24190aU,
  0x3c13e3f73e0244b3U, 0x3dc60e993d936efaU, 0x3dc54aa93c5089e7U, 0xbd19befebd3df92dU,
  0xbb84de3cbc1f01edU, 0xbcd90a2b3d4ab7faU, 0xbb7dd7653d896756U, 0xbd268b473d6d37a4U,
  0xbcc1ed4abd6782b3U, 0x3de54137bce42250U, 0xbdbdb3ea3e1e5e83U, 0x3df139ad3c617a4eU,
  0xbb8ed8733bb6bbc7U, 0x3daf61f3bd8782dfU, 0x3e0a1018bdf742f5U, 0x3cd13d393c87ccffU,
  0xbdc3498b3d6be25fU, 0x3d702aa33d04eaeeU, 0x3d8eb6043d5d4d3fU, 0x3d8e0fd23b5aba2dU,
  0x3da24bbabd8bfd16U, 0xbcb8313d3ca3374fU, 0x3cc9a395bd9de7d6U, 0x3d156614bdb27dbfU,
  0xbd1b0716bc2759caU, 0x3a7157753d29eda8U, 0x3c9228bebd343c46U, 0x3e2a30aebd0017abU,
  0x3cc7cbbb3d580ef4U, 0xbcd34842bcc171c9U, 0xbcc78646be20c38aU, 0xbcde4899bc6bf6f6U,
  0xbc0fd456bc95efb9U, 0x3d6c8c56bdb388e5U, 0x3e3c655d3e1c81d3U, 0xbcb1d3b5baf899ecU,
  0xbc4ba5c8bbb66da6U, 0x3cd8da21be00cfffU, 0x397781903d2e478eU, 0xbc9fc6b03cbd1d40U,
  0xbe54c7f1bdfb43f2U, 0x3bb24ac8bb116d2bU, 0xbd64fd843dc90758U, 0xbba888393d1436e2U,
  0xbe509e17bd1a3bd1U, 0xbd0ebababe0a8acaU, 0x3dfa0f163c5bbb70U, 0x3cfe264c3d24116fU,
  0x3d0bc001bc147a09U, 0xbccba5dcbd73a641U, 0x3dc7da48be0b1b8bU, 0x3deb7cefbcc3289fU,
  0xbd44864a3d57cbc5U, 0xbda0b733bdb0038aU, 0x3d4329cdbd00ccdaU, 0x3d27019bbc923ff5U,
  0xbd3e1e85be191842U, 0xbb6c9376bdb9703fU, 0x3de973f53d2561e3U, 0x3d2e5810bca32060U,
  0xbd9d370b3cea2725U, 0xbe1d30f53da7606cU, 0x3d38997a3c07703bU, 0x3d614d0dbd70512cU,
  0xb99a05cdbd2bc9e2U, 0xbd6cbdeabe08a3d3U, 0x3d7adacbbdf642f9U, 0xbdf6ced9bdc6762eU,
  0x3daea2da3d20383cU, 0x3d249927bd367830U, 0x3d762f99be783e75U, 0x3e5960febb67479aU,
  0xbd6aed68bdb557b7U, 0xbd7740443cc24272U, 0xbda39d36be09ead6U, 0x3e00d420bd890fabU,
  0xbdfcb39d3e0297d6U, 0x3d80b8e53d3d672fU, 0xbddc239cbd1872d9U, 0xbd2d26c43d2b5e70U,
  0xbdeedad2be255548U, 0xbd0442d7bd3c2759U, 0xbc9cb7663df4f37cU, 0xbdcae67abad094ccU,
  0xbe0edd40bbeab3abU, 0x3db9d7453d64e868U, 0xbc10d1f8be154babU, 0x3d1cac9e3b540786U,
  0xbe2685f9be02efa0U, 0xbde6dafebe4e76f3U, 0x3bec28563d2c2f50U, 0xbd659a73bdc444d1U,
  0xbd63da57bc7fc3e0U, 0xbde05851bccd8289U, 0xbaaebf07bd4c45abU, 0xbd35ac1bbbf88d93U,
  0xbe71e742bda778c3U, 0xbcb031d73e0a2a2eU, 0xbe17067a3da9e273U, 0x3db71cc5be1a4970U,
  0xbe60a7973bbedde8U, 0x3d3d889fbda78134U, 0xbc220c6ebcd628cdU, 0x3d0a757a3bcfd435U,
  0xbe31f527bd9e9850U, 0xbdd61f5abd9ff0aeU, 0x3cf26bd23d8c292fU, 0xbd45b2603d0f3643U,
  0xbde813d6bdea929cU, 0xbe6dac0dbda4579fU, 0x39a18effbc7b6b7dU, 0x3d6600ad3dba37caU,
  0xbcaae30ebd17113bU, 0xbe3acc5ebcfd54d4U, 0xbd6df3a2bc280335U, 0x3e0f8c7abe4b67ceU,
  0xbe6871593e0e2b76U, 0x3cfb66463d1ff683U, 0xbd050028bcb17da7U, 0x3d05b3e63c5c0293U,
  0xbcbbba54bd1a7fa3U, 0xbce1fa5ebba2dd91U, 0x3df964163dc82242U, 0x3cebd01b3df45e0eU,
  0xbd961d333d0b4250U, 0xbde74d973de23776U, 0x3c8b9a78bd9371dfU, 0x3d45533fbe0041e2U,
  0x3d03613dbcfae6b1U, 0xbda8ab6a3dfa2ceaU, 0x3d91dc86bca0f620U, 0x3c616533bd8bb099U,
  0xbd5a47d6bc76ddbbU, 0x3ba328473d78f49eU, 0x3d8a0d853d8da1c9U, 0xbcd9a832bbeccc0fU,
  0x3d8ad2d83989bd33U, 0xbbdb5afabbb4c759U, 0xbd3706283c9fd761U, 0xbdef57eb3e76b60cU,
  0xbcc099eb3e123ae0U, 0x3e2675e53e042a56U, 0xbd2faf1d3dc5cf17U, 0xbdf555fc3dcf1e69U,
  0xbd569913bdcb889fU, 0x3d120fbd3dd5e3e2U, 0xbc3f5d5b3cc3830cU, 0x3e3fb495bd47c4a9U,
  0xbd8256abbb42a739U, 0xbda061533d89ebf3U, 0x3ca947e23d5de452U, 0xbba2c3fbbab97292U,
  0x3dda7b60bd050370U, 0x3bc017f2bdc60b29U, 0x3da71efc3d3dbff0U, 0xbe0eb4803d929c75U,
  0xbda00ca63dcd8203U, 0x3df4157abcb872fcU, 0x3dc05c2dbd10e7b4U, 0xbdb62cedbceb39e8U,
  0xbd0acd87bca082d4U, 0x3cfb73663d2b41f2U, 0xbe10f8a0bd1cde55U, 0x3d391424bdca7e7cU,
  0xbcc1f3aebd8dee69U, 0xbcb97ca83d050f75U, 0xbd0125d7bd9ccfa2U, 0xbc99032cbd729b0eU,
  0x3d416ae43d288d4bU, 0xbd09ac17bdee1bd8U, 0x3ca8a7363db6a953U, 0x3cb2aee4bc855916U,
  0xbc6748693c9aaecfU, 0x3d9d65123d9f83d3U, 0x3d9de40abd69d504U, 0xbaae05a1bda7790aU,
  0x3d5cef233ce0b229U, 0xbdd1f58dbbb37e29U, 0xbe098377bd1e9ec5U, 0x3e1cd9e8be4e6516U,
  0xbc6f995ebe210398U, 0x3e3f5dd2bd179f1eU, 0xbda1fb24bd6b4bfdU, 0x3dc265dcbc403a58U,
  0x3d0c111c3d9ac33eU, 0xbd0b9f64bd5146bdU, 0xbd9007f1be86ca15U, 0xbb9b8404be34d2e9U,
  0xbd26d7af3d1065e0U, 0x3d44f7623ddb8152U, 0xbe2d1c903d829ac5U, 0xbd61f5f43de04b61U,
  0xbc08dcf5be3acdefU, 0xbdf4c25e3e4cfc97U, 0xbe633b5dbd34c760U, 0x3cb30492be423eb6U,
  0xbd2d7e44bd06e80aU, 0x3e153d36bdc2f531U, 0xbc62e7613d9fbc41U, 0xbd513141bc833198U,
  0x3d4ca9133c6ba219U, 0xbb84579bbd888a6bU, 0xbd91592bbd873999U, 0x3ccf19eebd6e7e40U,
  0xbe06bbadbd9031f0U, 0xbccb4de0bce00bd5U, 0x3da4e29abd536610U, 0xbe109bf0be5d0121U,
  0x3dc51c84be59f5d1U, 0xbb15baaa3d5b9ddaU, 0xbd324720bdd28f02U, 0xbd81ad8cbdb1d630U,
  0xbacdf060bd27f869U, 0x3deaad2dbe2c1eb2U, 0xbcb113cdbcb5ce66U, 0xbe3785643d6773afU,
  0xbe018ca2bd058e22U, 0x3da32ebdbdb6684fU, 0xbdc65c343e662991U, 0xbe8163ad3d221217U,
  0xbe1da9b6be6de423U, 0xbd3dd5fdbe13d110U, 0x3e9626d2bd50e739U, 0xbddd15973e048d1cU,
  0x3e30bb133dee637aU, 0x3d490dba3d0eeb82U, 0x3e0b50cebe9f3f85U, 0x3e5eec903c206656U,
  0xbd1c6fc33d5eb209U, 0xbc22e121bd65545eU, 0xbd68fb373d087eb8U, 0xbd1b00243d0583bcU,
  0x3c37db9cbda39cd4U, 0x3da4f1b7bd05b96fU, 0xbd88761b3d7e7230U, 0x3df289543b33d4abU,
  0xbdba1c6ebd9dba9cU, 0xbc6ce8ea3d6e7323U, 0x3d0a1128bdd0d359U, 0xbd8593f2bc9e9647U,
  0xbe052dd5bc59e477U, 0x3c98089cbc2772a2U, 0xbdae77af3d3d7586U, 0x3d2d3d983b7ec8a2U,
  0xbd8e46a73ccc097dU, 0x3c858534bbfe8914U, 0xbd5be6173bf6988aU, 0x3c88c0113c93b45aU,
  0x3c228336bd2ea9f6U, 0x3d30a7e9bd1b0b95U, 0x3dcddc303d153154U, 0xbc74bbfd3c8741c3U,
  0xbdb84eebbd0035f7U, 0xbcf044223db310e9U, 0x3d33ff69bd9c63ffU, 0xbcead4a53ca163e8U,
  0xbd65cd2bbc541c0eU, 0x3d62ca19bca32743U, 0xbd12228cbd4b1f1eU, 0x3dcc0fd5bc21d09eU,
  0xbd9c3e6bbd0bab4eU, 0x3db2fe6bbc712337U, 0xbd84eef7be3f2d27U, 0x3d6bebeabcaa4afeU,
  0xbdc426efbac14b33U, 0xbcb21638bcce9991U, 0xbba736123d17edcbU, 0x3e0e034dbc5b0c93U,
  0xbd630e8bbd68f7f9U, 0xbcad3a073c54cfa8U, 0x3ca13038be00e402U, 0xbc2904d3bd8653f3U,
  0x3cd897d13a6f3781U, 0xbd6eeb0e3ca39fbbU, 0x3d74b9e53d05782bU, 0x3d2f71afbdcd0ce5U,
  0xbd986f01bd8a3cdbU, 0xbd286a2fbd851cb4U, 0xbd8d5011bd22985eU, 0x3ce4b1d2be413d03U,
  0xbc2d1bc03ad3f4c8U, 0xbd7e82943c90064aU, 0x3d45fb33bbac5763U, 0xbe042a053d03f030U,
  0x3b6dc5c53d885379U, 0xbd199f6f3d0e5b80U, 0xbdad0419bb22eee0U, 0x3a0304773c216a90U,
  0x3d544874bb313701U, 0xbda72a52bde542b7U, 0x3c4ba80c3d844f6fU, 0xbe027cecbd1b2467U,
  0xbcae283abddd9d86U, 0xbc7da1813cef5b79U, 0xbd084422bdf6cb85U, 0x3da76aecbe4297b5U,
  0xbb20dcebbb358336U, 0xbd82b766bbf4dcd8U, 0x3c8972723b85a6f1U, 0xbc52bf403d5764aaU,
  0x3b43f9313e2536dcU, 0xb8413c29bd3b27a5U, 0xbe008f6c3d6d9b7dU, 0xbc12442dbd1282c0U,
  0x3c5c2aca3d75cf1eU, 0x3dfc2cd83ca1e80eU, 0x3cf5ed413d940977U, 0xbdddbde13b3e9aa7U,
  0x3bba8adb3be4bef7U, 0xb8dbe0c93cd0764bU, 0xbd0207933d74cf4bU, 0x3cae7241be295461U,
  0xbb9f3f86bd0d15f0U, 0xbd60880ebde29a52U, 0xbc9ff7c0bcd484fdU, 0xbdb339d43d5edcf1U,
  0xbd7547df3cef1839U, 0x3d84f343bc948c65U, 0xbdd7f4eb3c6c6ef3U, 0x3bbf5bf3bd40aeaaU,
  0xbcbad206bd61fc41U, 0xbd21a886bd2584edU, 0xbd3b66e73c7089a7U, 0xbde282153d8ccb49U,
  0x3ca5a46abe1b8a19U, 0x3d1d6e193b63d01eU, 0x3d10d93fbe2d5bf9U, 0xbd71cdc7bd9862ecU,
  0x3b1925b5bd735a2dU, 0x3d2df41bbc1900b4U, 0xbd32fb9f3d8879a6U, 0x3c813c63bd947ca6U,
  0x3d622a31bd368b66U, 0xbb0ae19fbd89cacfU, 0xbbf4f15dbd78eab0U, 0xbd403f38bd08b7afU,
  0xbdc30201bb80dfadU, 0x3b5f71b5bc2b61e6U, 0xbd3992e0bc0c5ccaU, 0xbcad842bbd55cf56U,
  0xbcff1113be1cbf28U, 0x3ca20e343cd3024bU, 0x3c0011093c524898U, 0xbd16f726be3ca624U,
  0xbcb395a9bce29844U, 0xbd15c4cf3d65d5ccU, 0xbce310cc3ce0bc7fU, 0xbce792a1bcaac6f1U,
  0x3dac31f23d861ae4U, 0xbe0e0d28bd9eb3adU, 0xbd8404fdbd945f3dU, 0xbcab8e5fbca2f498U,
  0xbc5c02483b022e95U, 0x3e23064f3ccd88e0U, 0x3d6781d6bbc49b1cU, 0xbda22c54bd8f46d8U,
  0xbd6b47a7bdac9e31U, 0xbc66cc20bda8472fU, 0xbb9e7f1a3d316cecU, 0xbddcb810bddf1c9fU,
  0xba0a72c8bd3b7e0eU, 0x3c6b99c3b9e5d74dU, 0xbcc22fd73d361bc3U, 0xbe2c00d1bbccc880U,
  0x3da32d7ebd657175U, 0xbe1ccc91bd90e501U, 0x3d3e3707bdc8f3f5U, 0xbd4696e83c865595U,
  0xbd8eb401bc943c99U, 0x3d954be0bab80cc9U, 0x3d23797dbca351e0U, 0xbc16722ebd425693U,
  0x3d88e3ffbd35574eU, 0xbd447e993d2c49abU, 0x3d850327bcf72b34U, 0xbc15772f3ceff935U,
  0x3ccd59413db493daU, 0xbc5982a93dc6f501U, 0x3d8f32a8bcb2cc70U, 0xbdc40fd13e1708d1U,
  0xbda8db523d835ed2U, 0xbd8aeccf3bda6982U, 0x3bfb84eebd04b9a0U, 0x3d9fb28fbe25fcc2U,
  0x3df583ee3d85ab1eU, 0x3ccc6b36bce03c8dU, 0x3e23ec65bcad3807U, 0x3d214f96bc81e4caU,
  0x3df71e513cd8b5a4U, 0xbd2564ee3d2d1122U, 0x3c88e2d9bd55b777U, 0x3ba9f8833bc588c2U,
  0x3d6ed31abcc89446U, 0xbc487437b9f297b5U, 0xbd6d817fbd515512U, 0xbe23690ebda78c1cU,
  0xbe33ac08bccf5e08U, 0x3ca507753d81012cU, 0x3d17eaebbe168b71U, 0xbd6dbeacbe879f0aU,
  0xbc26ecc8bc9136bfU, 0xbcedc9bc3d3b8868U, 0x3be51e6ebd40775fU, 0xbd773c403ca1dd08U,
  0x3d113fb0bde98b88U, 0xbd92685e3d8e3ab3U, 0x3c8999eabd2a23c5U, 0xbd5193cfbd64ce15U,
  0x3b609bd8bd409711U, 0xbcf63de0bdac3400U, 0xbcfac795bd5e565fU, 0xbdea343cbd929013U,
  0xbe27e5ee3cca9befU, 0xbc6202f3bdbfa8e6U, 0xbd70374cbe17b6fdU, 0xbd63ecfc3cccb1acU,
  0x3d0e9d8ebd027a1eU, 0x3d986d54bd2a28f1U, 0x3da09aa1bcb15381U, 0xbdf2e0a53cb878b1U,
  0x3e291b88bc47f42fU, 0x3cd12f9d3dc02055U, 0x3c00343a3bfb6eccU, 0x3ceec8d13d9fb0aeU,
  0xbd318fd2be0858aeU, 0x3be91be4bdcdcfefU, 0xbe039b45bdad45cfU, 0xbc546292bb25a2e3U,
  0xbdcb60ea3bd99834U, 0x3e3514a0be27b4c3U, 0x3b0027a83d351670U, 0xbe1ce4d8bd948afaU,
  0xbe0ec14abd83ca9eU, 0xbda8db073dcc20e6U, 0xbdd121603c3afcdcU, 0x3af902063df97c89U,
  0xbd1dff4a3cfd32aeU, 0xbc2df2583d71fdf2U, 0x3b611ee23d674593U, 0x3c4062a73dd8eaecU,
  0xbd330b4bbd67a61fU, 0x3dfcb5cc3bed87cbU, 0xbdb7b5a93d805919U, 0x3bbaa104bc926564U,
  0xbd8fb2213c8b2619U, 0x3d3c02acbe0eb455U, 0x3d5d04773dc0dca2U, 0xbd88b77f3c1fe1f2U,
  0xbd56db77bbadc556U, 0xbe12abdabc9df963U, 0xbd04eb0abdc7ed0bU, 0x3d06418b3cf16d84U,
  0xbe372937bd81cc6fU, 0x3d4438a8be1c2602U, 0xbd6be438bc34d130U, 0x3daea62d3da48bcbU,
  0xbe033fe43c599fa9U, 0x3e0211823c3ef254U, 0xbd46b8513d996dd4U, 0x3d4c9aa7bd5f00e5U,
  0xbd01d49fbdb2bac1U, 0xbb8f23bbbd7d3d47U, 0x3e35404f3dc60110U, 0xbd71199c3e294f2bU,
  0xbccdceff3cab2ab4U, 0xbda29e6dbd3babd8U, 0x3d86dda73d741436U, 0x3d8eed64bc9cd0ffU,
  0x3c89aca2bd1a203aU, 0xbc94ec053c2ab0aeU, 0xbd5b24783cac4900U, 0x3db85d393c9eb531U,
  0x3dac769cbd1f95ceU, 0x3d3ce455bd5099f4U, 0x3d65e9f7bd976e73U, 0xbcc39e2fbdd9774dU,
  0xbdadb515bd1bb484U, 0x3d1795613d602573U, 0xbd81b7473bca6d6dU, 0xbd9a42eabbb6bfeeU,
  0xbdc6947cbd1b18bcU, 0x3d11b813bc5c5c1eU, 0xbd81bc7f3cb80022U, 0x3c819c7f3c92c263U,
  0x3b7f7223bda2454dU, 0xbcfa0daabcb9574bU, 0xbca85c5a3ca4ec6aU, 0x3db39b823d26e37dU,
  0x3d115005bcb33e13U, 0x3cbf35edbcc9ba19U, 0x3d468d89bceba5eeU, 0xbd18ebcabdd45d22U,
  0xbcdde126bcff40e7U, 0x3c925c593bf1924cU, 0xbc0f4a81baa52503U, 0xbdeabbc13ca47da4U,
  0xbd9d3779bd186305U, 0x3d4bca433c7f1b40U, 0xbba067bdbd3551deU, 0xbb6a69d9bc333896U,
  0xbc28a8e5bd68ac9cU, 0xbcdb9dac3bb1f442U, 0x3c60dd5b3dc31c3bU, 0x3cfef3183d744618U,
  0x3d15cc84bd3f8d99U, 0x3d6bb781bc5f4399U, 0x3d4151453d53625cU, 0xbe03ab3abde136c3U,
  0x3c11db7abdae94beU, 0xbd3f0d17bd838a43U, 0x3d5491203d17cf3dU, 0xbd0a7fbf3d9713b1U,
  0xbda72ee23cf5dc81U, 0x3d3e8cb5bd64b6b8U, 0xbc98e0633d471d0eU, 0x3dd88be63bb06e23U,
  0x3d91bc2abcaeae81U, 0x3e06c05dbdacc160U, 0xbe1a11be3c094640U, 0x3de8e246bb92d717U,
  0x3e5591fa3e1442e6U, 0xbd4f8722bd40ab08U, 0x3dae57723dbd2cd7U, 0xb84d7033be22f9efU,
  0x3b04c8cbbd188be7U, 0x3dba594ebc8d94f5U, 0xbd8ee691bda816f6U, 0xbcb7ab513d5b9b69U,
  0x3d5588f83e40fcc7U, 0x3e007114be39aabcU, 0x3dcf193dbda2f8daU, 0x3e144159bdd2d3beU,
  0x3e2458943bae3479U, 0x3c8b453cbd54e3afU, 0xbe5e09d4bdb449caU, 0xbdcab2e4bce6b8edU,
  0x3d9b1f553e11d085U, 0xbe105b013cebdb40U, 0x3e21ac303d046fd7U, 0xbda60367be8de547U,
  0xbe2d852b3cdbd14aU, 0x3dfa17b23d3d7871U, 0xbd90198ebe32c61aU, 0x3e41daee3d3d9b63U,
  0x3d89898e3e39eeafU, 0xbc68d6ebbdd18159U, 0xbd5492a3bcd59df5U, 0xbd8acf8abdd69d43U,
  0x3d6b5d30bd0ba5ecU, 0x3e89c520bd886aa5U, 0xbddbf32abe8205a8U, 0xbdc6e08ebe54efb4U,
  0xbdce39203c5ab492U, 0xbe09fee3bdcbbc6eU, 0xbebed415bdf4bdffU, 0x3d8074bfbd8a237bU,
  0xbdd83906be2ba859U, 0x3d7d406bbe5c32a0U, 0xbe13c3afbe2fedc7U, 0xbd1541dd3d75c286U,
  0x3db19e253d988a42U, 0xbe82734b3e614ceaU, 0xbe245f0d3c3bdaf9U, 0x3e153735be3a0f8fU,
  0x3ca7af1a3e0d3fceU, 0x3e04d4dfbdd909ceU, 0xbdb9f2a7bd80caa2U, 0x3d6596ba3e1907e0U,
  0x3d9211513cc456f7U, 0x3e1d57353b840f6cU, 0xbd2be23f3dc918f6U, 0xbcecd428bdd1f55bU,
  0xbe110199bd74c81fU, 0x3d6056f0bc97c8dfU, 0x3e4582de3beb3ac2U, 0x3d9b9aa63ddb6a86U,
  0xbdac31ab3d6d69faU, 0x3dbe512fbd393a51U, 0x3d75eb203e01885cU, 0x3dbcc8be3e102244U,
  0x3b7e2e883d4c1136U, 0x3d9572b2bdb7ef15U, 0xbded43e6be54103bU, 0xbb8613e03d0b54e9U,
  0x3c83e1e33d990014U, 0x3ce6038f3cab2ad6U, 0xbe2b4c173da7de08U, 0x3da8281abc0a2332U,
  0xbddb0bb53b59c474U, 0x3dd75398bd2deabdU, 0xbbd790f23dc187feU, 0xbbbfceab3d32eb19U,
  0x3b00b8cf3dbf0ee2U, 0xbd84166bbdb8758fU, 0x3db9db983d45796dU, 0xbb4d00693d67a823U,
  0x3da118ba3d8ced0dU, 0x3d4823713d0fab85U, 0xbe0fb7d3be559709U, 0x3d7c89b53cdce221U,
  0xbd60683e3d906ddfU, 0xbd8f1799bc9fe749U, 0xbdd3b385bd777395U, 0x3c70353bbc7dcb3aU,
  0xbe12fbef3d037138U, 0x3dafcb1a3d52fc49U, 0xbd45bf4b3d86e1efU, 0x3ceea13e3bae43b3U,
  0x3d221b013d02d27eU, 0xbe1fa67b3b5ada2fU, 0x3ddf0767be064a45U, 0xbdf760c93e105794U,
  0xbbf4a4c1bd9b3e52U, 0x3bf421f33d2a5afbU, 0x3d018c1dbd2a4ae1U, 0x3d5e01c5bc50b871U,
  0xbd1d4e95bdaab17dU, 0xbc15b0a2be1016a1U, 0x3c9a847b3c5f45e8U, 0xbe1ada03bd83c9f2U,
  0xbd4e4805bd059f1aU, 0xbd5b00c93d029e3eU, 0x3c5a2e7cbd71343fU, 0xbd40f7f73d3e28dbU,
  0xbe3bd3eabd4aa59dU, 0x3d5fc7063db5ff37U, 0xbdb32abe3a109ed3U, 0x3d28cedfbcaa84deU,
  0xbcfffdfbbd0d7513U, 0xbc8589babbe917faU, 0xbc8eb451bd1cd3f0U, 0x3c87ed49bd2adb6bU,
  0x3ce14140bd43f2d0U, 0x3d86596fbdc7d373U, 0x3da9799c3cb0fc21U, 0xbe13c01a3d2d7edcU,
  0x3cf6e376be12021bU, 0xbd98a6b53c36470fU, 0x3c96e081bced4591U, 0xbd30f394bd9e49e1U,
  0xbe35c4fc3ce91f06U, 0x3d6fdbc4b905af47U, 0xbdbc9c41be074819U, 0x3dbbee22bd2c915aU,
  0x3ab11e21b963f5d2U, 0xbd2d18fe3b2e17b1U, 0x3ba38bb6bcc4de97U, 0xbd18fe92bd00c35bU,
  0x3d7cba383d9ec35eU, 0x3d425f253d5ea62bU, 0x3d731898bd500550U, 0xbd752b51bba891d1U,
  0x3e413fc3bdde0984U, 0xbdda8e4d3d277b53U, 0x3c000d84bdd846b8U, 0xbdd97a74bdc2336eU,
  0xbcb9b7c0bc62826dU, 0xbd4f66cabd9826c9U, 0x3a8b7866be5079abU, 0xbba2d112bd4e6cefU,
  0x3d241042bc9c36b6U, 0xbd89ee463d3c5f35U, 0xbce3b3833b743f75U, 0xbd0125e9bcd64354U,
  0xbd410573bd96c7bcU, 0xbcb5beacbde28a3eU, 0xbd557bdbbcd8e0c9U, 0x3d398723bce7464aU,
  0xbd8ce367bd90ac02U, 0x3b9a1043bd6474abU, 0xbd5df76f3d0d35d9U, 0xbd0f13bfbda1ffe3U,
  0xbda09cdabd39b0deU, 0xbdae7e223dad3caaU, 0xbd917326bd32441fU, 0xbd7595663d1b1388U,
  0x3ca59a4abc1198dbU, 0xbd85a2afbbe30330U, 0xbd7096513db8ef81U, 0xbd33f5d83ca0a178U,
  0xbd15728fbddd29d5U, 0x3d58bbccbdb9d9cdU, 0xbd4935733be6a98eU, 0xbd80e2973d35b147U,
  0xbdd55dd8bdc6ee4bU, 0xbce3deb3bdd03f2aU, 0x3ccbec373cad2896U, 0xbda3ff45bd196e9eU,
  0xbdb7b07fbc6bda81U, 0xbcc304ce3d905046U, 0xbd49f0e1bd0765c5U, 0x3d8510fe3d12fbe2U,
  0xbd10a4d33ce3664cU, 0xbc53372b3bc83fe6U, 0xbcfd72113d9f4cb3U, 0xbd8622633d562e08U,
  0xbce1a4cbbdf0cb92U, 0x3d63be84bdd06abfU, 0x3d57f7ea3d6cadbfU, 0x3cd1708dbba01e36U,
  0xbdccbacabdd0b533U, 0xbd3fe940bc5ab668U, 0x3d2493fdbb7f105eU, 0x3bfd11923cfdfd52U,
  0xbdaa52693ce7780dU, 0x3d6d22bebc21a02cU, 0xbd41c0863d926d04U, 0x3d7ede993cc3e1f3U,
  0xbd2aa266bced9af4U, 0x3e5b10eebe35e12eU, 0xbdf96abdbd588dabU, 0x3c58d8273d0abe4eU,
  0xbd097ad8bdf4547eU, 0xbc21c7f2bd8145b1U, 0x3ce210003d9443a6U, 0x3e0edbe83e2e08bdU,
  0xbd2cc305bd7e24c0U, 0x3d13193d3d0132bbU, 0x3d3d6915bbab600aU, 0xbc83affbbcf74b62U,
  0xbcfdc4fbbe314611U, 0xbd87ac073d3dfa13U, 0xbd30f47bbd98ff73U, 0x3e026621bca16759U,
  0xbd9e60bc3b58f801U, 0xbe936d52bd01e513U, 0xbe1180903e3f0705U, 0xbd9489e33c1b2c6bU,
  0x3e63ead0ba5ed53bU, 0x3d6854abbc30a04fU, 0x3e21c99abe1a575dU, 0xbedcfbecbe2bb7b8U,
  0xbd16b4a43d94a9bcU, 0xbd9c085a3d93f6bdU, 0xbda7a1c2bdae07b8U, 0xba9fe37dbd0fddcdU,
  0xbdad7968be8263e6U, 0x3cff49d2be58bb45U, 0xbe13cdb73d23bee9U, 0xbd0f35fbbc682158U,
  0xbd5035febc0e5ef2U, 0xbe352634bdcf9384U, 0xbd72a69ebccd49c0U, 0xbe1a341b3d1507fcU,
  0x3c5e24d73c711bb1U, 0xbca803883e35c85cU, 0xbe14c584be137a75U, 0x3e2e86aa3e19dec8U,
  0x3e1c59823af9d542U, 0x3caaa7a4bdd16740U, 0x3d2594b83a9002bbU, 0xbe7d3441bcdb85feU,
  0x3dc63759bec0065aU, 0xbd7f41dbbd16bd8eU, 0xbe0e27bf3d90344bU, 0xbdb728023def4462U,
  0x3dbb4293bd2ce7f2U, 0x3dcd7bbf3d1ff95cU, 0x3d944bf4bd9e1330U, 0x3cb61f6cbb337fb0U,
  0xbdb2a4703d7cac86U, 0xbdd274ca3d056478U, 0xbe2e4921bc0d7629U, 0xbcafc371bdfd2badU,
  0xbced93cc3d8464aaU, 0x3df4a33abde51b49U, 0x3cd2a1493d3704edU, 0xbdbab17f3d8b6c06U,
  0x3d8ff97a3b64c06fU, 0x3c8ae5703d3531caU, 0x3db0fe09bd8cf6fbU, 0x3ca81ddf3ba364feU,
  0x3d2cdc23b861c739U, 0x3c389ea6bc380b74U, 0x3d6058ddbd65acbeU, 0xbd5b21d7bc6efce4U,
  0xbd8f62d63d560495U, 0xbd938c693d9b8b48U, 0xbdc85428bcb0696dU, 0x3baf744f3e055f81U,
  0x3d50cca8bc534bc8U, 0x3dbdec9abe029eb4U, 0xbd0a01e5bc5e2d38U, 0x3d68c1adbc18f07fU,
  0x3e0e10563c4b0188U, 0xbd5fd43e3d53fd63U, 0x3d09e834bc324915U, 0x3c94561bbc1a2292U,
  0x3d8d4f5d3ccc16b6U, 0xbc4745603c7afb16U, 0xbd5376dc3d2f3ed4U, 0xbd4d587d3d80723aU,
  0xbe1b264c3e022e92U, 0xbdbe9b653cbe5809U, 0xbde831ec3c8f1ee7U, 0xbcee8f25bd86e232U,
  0xbdb22b0cbc5c0079U, 0x3df8c756be5edecdU, 0xbce6dc9f3d348563U, 0x3d2ca5e33d3af67fU,
  0x3dc11e7c3dbc4331U, 0xbccfd345bcc652afU, 0x3d12079d3d8312a0U, 0xbd22ed403d2f84f8U,
  0xbdbf31273dc13002U, 0xbe1ffcccbdacea75U, 0xbc2d94c73b54efafU, 0xbda5358f3da5cde8U,
  0x3c6a58463db4d124U, 0x3da610843d7f0fc5U, 0x3a5a60653d62dd1fU, 0x3d050f263c8573e0U,
  0x3d1ad8dbbdc3a79fU, 0xbcfb69bcbbf762ddU, 0x3d886da6bd072ff0U, 0x3e24bab73c4688a5U,
  0x3c1e17de3bca00deU, 0xbd236832bd60939dU, 0xbe2797d13da4077cU, 0x3d27eb573d1e77b7U,
  0x3c8133c73d723e5eU, 0xbd9a07ff3c518535U, 0x3da3e65abcf38a27U, 0x3cacc5363d167da3U,
  0xbcf9529ebd8d7acaU, 0x3dd94889bd4eb2eeU, 0xbd163b663c25e12dU, 0x3d2caf0dbd395883U,
  0xbd08efccbda2607dU, 0x3ba14f7f3dc54056U, 0x3d1e266ebd81ef4aU, 0x3be8e99dbdbaf520U,
  0xbe7d622fbdaacc93U, 0xbde1e5f4bdce9d27U, 0xbe467b28bdbb75d5U, 0x3d3b62a53dac64fdU,
  0x3d1c5ee8bd11f341U, 0x3da8410a3df10e02U, 0x3e239d5ebe5850aaU, 0x3d8cb167bda970c3U,
  0xbcbc0500be2c52b9U, 0xbd90f733bba438c0U, 0x3d84a1f4bdc1e11bU, 0x3d6bdda43d47e052U,
  0xbcbec4533d69c21fU, 0xba9d39843d901b39U, 0xbe022024bcc088b7U, 0xbd935a6fbdce7e84U,
  0xbe67dd98bdecbfd0U, 0xbdc4ed793db84fd9U, 0xbe358df7bddec541U, 0xbd17cddd3cfd6555U,
  0x3dfb6aae3c73984eU, 0x3e1d16613deb332dU, 0x3d68672fbd8a25c1U, 0x3d99f3523bcc8f09U,
  0xbc9606413c436c37U, 0x3c63c484bd15aaa6U, 0x3bdf85293d1817a0U, 0xbdd64919bd96f9b9U,
  0xbdcfda993d0bb970U, 0x3d94d6a23d6102a9U, 0x3ca5a7acbd84a073U, 0xbc787a173d237a97U,
  0xbc97c20e3cc9e053U, 0x3ca0898b3dd2f7e7U, 0x3d8b95bfbdba78b8U, 0xbd0b37fc3de36d85U,
  0x3dd42b48bc978071U, 0x3d85418f3d9439dbU, 0x3d10c74dbcf1f4afU, 0x3de0e3eb3c1cfccdU,
  0x3cafd39b3c986fb0U, 0x3d79ec983d587212U, 0x3cc1fbed3cba8a78U, 0x3c02fbaf3d5ed8b6U,
  0xbd7c99bfbc9df5e6U, 0x3d7002253d4e1e44U, 0x3cc5b4ff3cb0b6aeU, 0xbd0e673abd002196U,
  0x3d75188b3d95de4cU, 0x3bcdb6f63d9684f2U, 0x3dcccebfbe103007U, 0xbe03fb053d072bbeU,
  0x3d198b50bcbd3c3cU, 0x3db2f44a3c75c8acU, 0x3d87218bbd5cca11U, 0x3e09aa9e3c53d3f7U,
  0x3cfad7cdbbf38de2U, 0x3d96c12b3ded3aa3U, 0xbd2b2ada3cc7acceU, 0xbd69e754bd458d4cU,
  0xbcd7d6e33d2d9306U, 0x3d82933a3c00c227U, 0xbbb25e09bd5371beU, 0x3cc63cc6baebaa13U,
  0xbc8489a33da0ce03U, 0x3dcc43663e17cb82U, 0x3d7830063cc27fc0U, 0xbd821b323b96cbebU,
  0x3db23ec43d7b3f38U, 0xbe1b4ce63e2f9306U, 0xbd31a9c23cbd1d83U, 0x3cfead0b3d21901aU,
  0xbdb5d365bd5b1fc6U, 0xbddb74ddbe78ae4eU, 0xbd0c49103df6674fU, 0xbdbf73c4be173efdU,
  0xbd8427cfbbfeaecdU, 0x3ce73da0bb3d2370U, 0x3dfac60dbd14b868U, 0xbda8dc4abdb9a6f4U,
  0xbe0ac50e3bba2d1fU, 0x3d98f2ccbd75455bU, 0xbdf7460d3c1b3c03U, 0xbcfac8863d6e1985U,
  0x3d93a258be132f9eU, 0xbe1fe3573d178365U, 0xbd0319e5be10aba3U, 0xbd1f03a6bd72af84U,
  0xbd7bdc253a6f668eU, 0xbe1a599cbddc8d0fU, 0xbe11a9433d907492U, 0x3d9119cabd3fa67bU,
  0x3dc9cf01be1fc9b1U, 0xbc4b0708bd23acdeU, 0x3d433797bd1d3ae2U, 0xbdf0e5e8bd8c194eU,
  0x3c21ed383c6e0c01U, 0xbe0838b9bda0239bU, 0x3d60398bbdcea6f8U, 0x3d97db9b3c6c3265U,
  0x3ac711f73ce61f09U, 0xbe21ccf4bd13a886U, 0xbe09bec73d687396U, 0xbd0c5ba53c9b1b3bU,
  0xbc0d7e9f3df07652U, 0xbdc3a1e63daa761bU, 0xbde430f3ba22e75fU, 0xbe8196ef3dab4394U,
  0xbcc13d2ebb86e978U, 0xbd945a48bd917602U, 0xbdba1e21bca17a77U, 0x3dfe8a7a3ddf5fe1U,
  0x3e1f1d7d3d77fb2eU, 0x3deb8a94be1707a2U, 0x3e0474743d24f5a2U, 0xbdc176d23d5d0577U,
  0xbd0e2478bb75dffbU, 0xbd552f6cbdab50dbU, 0xbd76b13cbdac81f8U, 0xbd0e0bd4bd6a734cU,
  0xbd52610e3baffe96U, 0xbdc89d45be45a455U, 0xbd9ed6da3c71affbU, 0xbd38142ebd26a6f3U,
  0xbd69607abd44a9f2U, 0xbdda52c6bc02b70eU, 0x3c063218bc8dbe19U, 0xbdba6c6fbda2912aU,
  0x3cbb0eb0be38148aU, 0xbdc28c74be1eeea2U, 0x3cc7b4f3be856715U, 0xbdf9212a3c2fb8ebU,
  0xbbede82d3dedce0aU, 0x3c9e20c83b92ab2bU, 0x3c5328623ddf85fdU, 0x3cff758c3ce819baU,
  0xbc4ef90f3d662b42U, 0x38ce3048be21c100U, 0xbd6aa5d6bd130befU, 0x3d56f845bc9f18dbU,
  0xbc869a0fbdbc67e6U, 0xbbb739a73db06a18U, 0x3c218978bcd32173U, 0xbc7122fabd025d2cU,
  0x3badf26fbe15c274U, 0x3cf01f0cbddc02cbU, 0x3c5b1929be939c10U, 0xbe8c98ab3c8715e7U,
  0x3d536df73dcb05cfU, 0x3dc1d3e5bd1f3e43U, 0x3d6a1abc3d32ec8aU, 0x3e18a25f3d13b6bfU,
  0x3db0eb533dbeefd6U, 0x3de20c93bcc1951aU, 0x3de0c1d5bd467dcfU, 0xbc87b5463d1e30b8U,
  0x3d3ec5babd5d7f46U, 0x3cfacf313e2aae44U, 0x3dc53e17bba74d24U, 0xbcc00fe5bdf7da2eU,
  0x3d2a9c60be2b518eU, 0xbd99a2a13a769b20U, 0x3da83310bd9de922U, 0xbcb7ef0d3d9709a2U,
  0xbcf13947bd662e3fU, 0x3dc3156dbd71a939U, 0x3d093044bd1bb5e5U, 0xbb0b0596bdac315eU,
  0xbc7b23a33d8e511bU, 0xbd90d3493dd1f27bU, 0xbc49492dbd717db7U, 0xbddfb30ebd1f8396U,
  0xbe5608cc3c4bcc89U, 0xbd60231ebd504592U, 0xbdc0f8eebdefa292U, 0x3d9ec2fcb9a9e4a2U,
  0x3df750b03d801c90U, 0xbdc93423bd8227fbU, 0x3e4cdbe23b4a95e8U, 0x3d88d5fdbdcd2d75U,
  0x3d800a763de63bc4U, 0xbdfd6f913d088c43U, 0xbc2295773c8710c2U, 0x3c644c513d29ea3aU,
  0x3d16daf2bcdf3dbfU, 0xbb9436b83d1393aeU, 0x3d3f5756be2d2c88U, 0xbe393f873d188e57U,
  0xbdda9e2c3dc435bcU, 0xbd835abe3d8dbf6cU, 0xbe024a63bd8e0b25U, 0xbd14d267bd4066a6U,
  0xbd147ef6bd01e2e1U, 0xbcfe0e86bd8f4377U, 0x3b80e2a33a5c205dU, 0xbe417bd03c9e43ecU,
  0x3a0b92953e1d3d18U, 0xbc40316b3da2053eU, 0x3dd294d63d14af26U, 0x3d16665c3e1c255bU,
  0xbd459013be09909bU, 0x3d33b11b3d0676bdU, 0xbdddccbcbe1278f7U, 0x3c717858bd944050U,
  0xbe2482023ab575c3U, 0x3e21c18a3d570ad3U, 0x3c139eb1bc5ed6a9U, 0xbd2c3b38bce82eb6U,
  0xbd74d104be26e17fU, 0xbe11163f3c342f87U, 0xbdbb7066bda79c22U, 0x3d41d9493e50b40aU,
  0xbda565d5bd11eb5eU, 0x3d3a4d2dbe86af95U, 0x3cf5e539bd52fb01U, 0x3c8c976e3bd71c71U,
  0x3c63a0a93d8bef98U, 0x3b53e2133d08747eU, 0x3b9505d5bdebfd4eU, 0xbdc6efd03d55728eU,
  0xbda36ccebbc6ac3dU, 0x3d15c3b2baa024daU, 0xbdbd1860bdb0286bU, 0xbe8480853e2b0738U,
  0xbb9a129bbde04ee9U, 0x3d913a03bd9b9b7eU, 0x3c85793f3cfd7c21U, 0x3e087bd6bd9003e9U,
  0xbd89c2443d89e10dU, 0xbda598bebe341d7aU, 0xbddba1eebda963a0U, 0xbc8ffb6d3d105abcU,
  0x3d0d88ff3d79a10cU, 0xbba956923d99375fU, 0x3d83e2c3bda814d4U, 0x3cc97c2e3d0c42caU,
  0xbe019c14be061961U, 0x3d40a6c03d71935eU, 0xbdc248e3bdb6966dU, 0xbc96a920be3afd91U,
  0x3d9d60dcbd86bf72U, 0xbdb72098bd7c27f9U, 0x3d5395b5be6ce15aU, 0xbdf2e0d63d421d25U,
  0xbd8ecfdb3c11c4deU, 0x3c5a0313be249a45U, 0xbe18a3353d0e4b1aU, 0x3b9df2363d4c60e1U,
  0x3dceefa83c84e730U, 0x3d0a2f503d9421a0U, 0x3b8c576cbd8c063dU, 0xbdde4accbcd039e3U,
  0xbd39a7f7bb4e5626U, 0x3e214f5c3d538addU, 0xbda03b0dbd88b0e0U, 0xbdde70cc3e186eb4U,
  0x3c99f978bdd0e439U, 0x3d903e8ebd8d107bU, 0x3db7630a3e11c1d5U, 0x3dcc0e60bd20fb34U,
  0xbdd755813ceaf121U, 0xbdd22c28bdba7966U, 0xbd7f91f6bccee51fU, 0xbd9da82b3cccf1f6U,
  0x3d9419a0bb0985c0U, 0x3d6b53af3cd90534U, 0x3cee59d03d0e4c30U, 0x3ceb867fbcdf7014U,
  0x3dda29a7bcb1ac92U, 0x3d89a267bd7c5dd3U, 0x3dc7e44a3de998a8U, 0xbe0b44b1bdea9531U,
  0xbddc319abbe1f80bU, 0xbe21135bbe06de1cU, 0xbdd9e116be5bce44U, 0xbd9f4f32bb93a6b8U,
  0xbe035a17be5767c5U, 0xbc933552bde6a947U, 0x3d8ad290be100896U, 0xbdacd9d4be15a9f5U,
  0xbb51b3d13d9016b5U, 0xbc94031f3d95d487U, 0x3e0f284c3d881919U, 0x3d29623a3db7b07bU,
  0x3e02d346bdf4adbfU, 0xbd7a6209bd60c34dU, 0x3dbc87f4bbb84716U, 0xbd2ef46ebd3d3729U,
  0x3ca203bdbcc6f1f6U, 0xbd516c37be47c5e4U, 0x3c95e29e3e0b5222U, 0x3e02b0b1be2a5bd7U,
  0x3d44313fbdc18decU, 0xbd9480e5bc6ba5b3U, 0x3c11092abe646c8eU, 0x3c5cd7a8bdb15ee6U,
  0xbd07c4b5bd045f46U, 0xbd598c9dbcdaea2bU, 0xbd3bd53e3c0c1b89U, 0x3ceabaf8bd998b72U,
  0x3d8d99783b808f31U, 0xbd0645a1bd7a9466U, 0x3d30b6b7bd955830U, 0xbdde2c54bcf5f503U,
  0xbdbd58b03d71270cU, 0xbd1672d6bd5374dcU, 0xbc5d19dd3daa204fU, 0x3d857c8abdfb9d36U,
  0xbdef93b9bd4da5ecU, 0xbd858e00bd87906fU, 0xbbc5c825bd07f467U, 0x3e2319a8bd0dd28bU,
  0x3ada8ec7bd7b3605U, 0x3c3a9cf2bdf76ccaU, 0x3dde040d3d59ba3bU, 0xbce2b1cdbe39b822U,
  0x3dbf7ce33d59db34U, 0xbe3114713e07bbbfU, 0x3cca4add3cd26c35U, 0xbe0823d63d7e9eadU,
  0xbe04d802bc89831dU, 0x3cf75ae1be20beceU, 0xbdda81de3d808d70U, 0x3b7f4932bb837818U,
  0xbd68ee3ebd948958U, 0xbdc32a4ebc9ce859U, 0x3d1f70b5be4335cfU, 0x3e47bebdbd28057aU,
  0x39fbd76cbd1d0ae1U, 0xbda1cf16be178a0cU, 0x3d8be7053d08941bU, 0x3d83a531be3452a2U,
  0x3dd742973e29c19eU, 0xbdbe31323e0f5817U, 0xbd59088a3d4b5ef9U, 0xbe0fab863e071b8aU,
  0xbe333531bd8edda2U, 0x3dbb7fd4bdf4e625U, 0xbe07c1ab3cf565cbU, 0xbe047ea8bd0c850fU,
  0xbdf421cebbfe07f4U, 0xbd800767bd4006adU, 0x3d782e32bdbc375cU, 0x3dd7c187bcdce4ceU,
  0x3d70b4833ced7d2cU, 0xbd329539bd97f312U, 0x3dbf88dbbd362758U, 0x3d8b1911bd0a64dfU,
  0x3da550f53d5ce9d9U, 0xbbc0b7e03db7ec81U, 0xbd87ff6e3c0cb5d9U, 0x3c1a73eabd1e4e6bU,
  0xbd083c94be278c10U, 0xbd51ef42bdcb3f11U, 0xbe901a343b2c7fa5U, 0xbe2504cfbd2d6b5eU,
  0x3bdacb47bc8ce382U, 0x3e10533d3c1f1850U, 0xbda95779bda33331U, 0xbd3c137bbbb754f7U,
  0xbd96147bbdc76328U, 0x3c283591bdab46abU, 0xbdade0063df5c4daU, 0xbdcddfe6bdd35675U,
  0x3df6aed0bd8e94edU, 0xbc8a7dbbbe4152f1U, 0x3d6e7ad83da783ffU, 0xbc588959bbed7900U,
  0xbd11ec63bd07e8d1U, 0x3d9205983d6833caU, 0xbe1f75a43e08477cU, 0x3e3b5b32bd0677a3U,
  0xbd425519bdf3c61eU, 0xbd837fa8bd81988cU, 0x3d2cb2bd3b3cdfb0U, 0xbe4f52623d824d13U,
  0xbe1694f03c5de8f8U, 0xbe12daf43c39dd06U, 0xbdd4207b3d811816U, 0xbd8e988ebd0c84c9U,
  0x3d3f3a36be17b546U, 0xbcde8b82be44e4a6U, 0x3e0b00e73b98d611U, 0xbe03672a3cee9096U,
  0xbd762719bc82c8f7U, 0x3cd7daddbe23bd9bU, 0xbdcc83ae3e2df9b2U, 0x3de40f04bd93c248U,
  0xbbdf1dc2be16ae02U, 0xbe3f3d443d8a3d42U, 0x3d5ade063d80b3d2U, 0x3de0b699be30f90cU,
  0x3d9f3e403d538fd1U, 0x3d8c51d13dbcc61cU, 0x3ddd1325bd27c12cU, 0x3e279e413d1221f9U,
  0xbd08368b3d0a6847U, 0x3e5a3a973e73a854U, 0xbce84cbfbd8ad504U, 0xbdf6a1f3be1ac494U,
  0x3e036f3b3d5a0745U, 0xbe565afebd846a21U, 0x3e347cf6bec19365U, 0xbea5df09bdd35524U,
  0xbd2b36d73d4db661U, 0xbd10f88b3d08296dU, 0x3dd972e0bcf87605U, 0x3b94ef803d29200bU,
  0xbe3070dabdcd026bU, 0x3d78e68e3c2f9b42U, 0xbce3296f3dbabb26U, 0x3dc5f22b3d193323U,
  0x3d874a153d641f7cU, 0xbd93446ebd4ee250U, 0x3d3668473d8b0d1aU, 0x3d91b56dbbeb149bU,
  0xbdbb48833d0d7d61U, 0x3c22c3dc3d75590dU, 0x3c49d8efbdfc7590U, 0x3cc2cf09bc21606cU,
  0x3c1d83efbc5d48f0U, 0x3ac692f53dfea0f0U, 0x3d907f793d0eeef8U, 0x3d2a9b00bc127ed0U,
  0xbe6a2186be10abd1U, 0x3cd868e03d8ac2deU, 0xbdb394cabd605785U, 0x3aa79b443cac1ab9U,
  0xbca4218e3d8fe160U, 0xbdb00726bd6ae637U, 0xbc5dbca13d9cd042U, 0x3d37d584bdb9ab9cU,
  0xbdf9f287bd86016cU, 0xbd3291173e133a03U, 0xbb8753213da6a388U, 0xbe52e625bcb734d0U,
  0xbda9e79dbdbe43e4U, 0x3b8d4799bb007003U, 0x3d479bbabce2f7b4U, 0xbd8ef4a5bccd8dedU,
  0xbe0a6895be266fe7U, 0x3c552aaebca17677U, 0xbd6e97bebd01dd05U, 0x3da1bf8abca1cf53U,
  0xbc5fda963d6c8ca4U, 0xbe130fa3bda1d34eU, 0x3d702a26bcb79291U, 0xbdbe6747be05086dU,
  0xbe2249b4bcf00b76U, 0x3d5f80ecbcec6873U, 0xbbb3ec64bd734172U, 0xbd19bb06bd53df64U,
  0xbd945f23bcc3a019U, 0xbd353190bcac4065U, 0xbdba42073c847c4cU, 0x3e193a5abd63d13aU,
  0x3d951e293c9c1cc6U, 0x3b88c10fbd1b5b5eU, 0x3dde949e3cf7e26aU, 0xbdf5d4a5bd143c88U,
  0xbb3c2b3e3c91b7aaU, 0x3c9ceacc3e412c76U, 0x3d2d255d3d1d72eeU, 0xbb997397bced92e3U,
  0x3c9f7fbc3cd1dbddU, 0x3dce631ebca2d686U, 0x3d3b6f91bb185cd4U, 0x3cbf8028bca12f43U,
  0xbd38cd7cbd1a65bcU, 0xbd6370bebbd10219U, 0xbd2bd9f13d0be5a0U, 0x3ddcbb3ebd3a411dU,
  0x3e3493e63cb177a6U, 0x3d1ea9e1bd4855acU, 0x3e0374a33cafa224U, 0xbd07247abd05c240U,
  0x3d03b0bbbce2998bU, 0x3d32936e3e1acd8fU, 0x3cd3ec34bcda664bU, 0xbbc5e73cbd547ba6U,
  0xbceb7c26bbc7737bU, 0x3dad1e68bca1c755U, 0x3c82361bbd0aa869U, 0x3ba6c339bc1de5fdU,
  0x3d1bd6cabd5a6261U, 0x3c756540bc226e10U, 0xbd61395dbdf1d7bcU, 0x3d819c1ebd802858U,
  0x3dca729e3d8e5293U, 0xbcd21037bcc51e64U, 0x3c9077fe3c8dba5fU, 0xbcbfaacdbcd904a0U,
  0x3cffa178bd066464U, 0x3d9d74643d8f2804U, 0xbaf41bfcbd738f24U, 0xbbb12d55bd2ff993U,
  0x3abd4915bd222f60U, 0x3d12014dbbe218c2U, 0x3b901e853c1ccd0fU, 0xbd5246b43c67a70eU,
  0x3d990a69bdda70b0U, 0xbcb423983c1a5f2dU, 0xbd6c8e573b806187U, 0x3ca7fb1b3c58c797U,
  0x3d27a3ddbd1fe58fU, 0x3c53dd87bde10607U, 0x3dabfc4cbccf9ac6U, 0xbd8e85d4be1b516aU,
  0xbe18cb583cdc62afU, 0xbc4fba9fbd497bb0U, 0x3cbeb2bcbd4aa409U, 0xbd00ea043cb2ee6fU,
  0xbc86adbb3d6fdaeaU, 0x3ce16f01bcab3038U, 0x3d5488b93e101e5aU, 0x3d775bcbbd5cd36bU,
  0x3df074c6bd3ca6dbU, 0xbe5b6c0d3d004800U, 0xbd234b14bd17c567U, 0xbddd5b493bd8fae2U,
  0xbc1b8179bd8c11d2U, 0xbbd3cfe8be0d430aU, 0xbd5c45d73c87c0f2U, 0xbe047e88bd596efcU,
  0xbe198d5d3d5a813cU, 0x3ae341fbbdc66cc2U, 0xbd850f51bd02c6d3U, 0xbd0e94d93c245b81U,
  0xbd882ce53cc4238fU, 0x3d8faa8c3cab4861U, 0xbd4025cb3aa14ed0U, 0xbd5d30853d17b684U,
  0x3ce6f4703c67e0f5U, 0xbdb74cbc3b39093dU, 0xbd4bab883cbff193U, 0xbe49d2de3c3a190eU,
  0x3c014cb2bd982bd1U, 0x3ccbaa1cbe24834aU, 0xbe45edb23c62fc15U, 0xbd94f6c63d686af1U,
  0xbe58d29ebdb273dbU, 0x3d9faf90be2b7d29U, 0xbd0339f93bd45fc7U, 0xbcf3e2bd3c839de3U,
  0xbcd799f4bcd687e1U, 0xbca09bac3d0e618aU, 0xbddcaf913bf3e4b0U, 0xbc89dd453d2df436U,
  0xbdd80fdabd4994b4U, 0x3cbbdda5bd78ab6eU, 0xbb2506923def31f3U, 0x3c3ed51abdfa7e69U,
  0xbcf0d7e33d298175U, 0xbd920cb93d577228U, 0x3cfe97d4bdbed063U, 0xbe0bfd6d3d809ee4U,
  0xbcd359ab3db07648U, 0xbe2a0fc9bd43b2d9U, 0xbe01c1d03c6b78adU, 0xbd830668bd6026feU,
  0x3d966a3e3caac4edU, 0x3df0ef413cceb473U, 0x3da288c9bc10ed1bU, 0xbdc622573a44fa6eU,
  0xbaf45c5fbd07ca16U, 0xbc1ac80abdbb64a5U, 0xbdcf92573dae75c8U, 0xbd37a8eb3cba938bU,
  0x3d1821043ccee1e0U, 0x3c4e28973caeb64eU, 0x3dd18196bc6501e6U, 0xbe7f1d68bcad1492U,
  0xbc906898bd30eb29U, 0xbe063c03bd629c9cU, 0x3ab0c4d7bdb26e0aU, 0x3c8ac07bbcd3843aU,
  0x3cc476d83da125c5U, 0x3db5b6d9bd6ce8b0U, 0x3ce1d8c8bd0f1606U, 0xbe2780ba3c70e328U,
  0x3c01f22c3d923ee0U, 0xbdcb6a8939b3b563U, 0xbd9003e83e346e08U, 0xbdb4bcb93dbcacb4U,
  0x3dab336cbc11bcdcU, 0x3d1af3cabc582b9bU, 0xbcf114243c6b2437U, 0xbdbb217dbd819c53U,
  0xbd8f1e6ebd8d8f9bU, 0xbc926c523dc5f8dcU, 0x3d9fd3ed3c6c8e47U, 0x3cb9f9703d219235U,
  0xbd07267d3d75f205U, 0x3d874ad0bd7fb206U, 0x3c8bf5403d59fccdU, 0x3d8aa4693d8c00b6U,
  0xbde1010cbc9ececaU, 0xbe6a872a3da8f3efU, 0xbccecfcc3e587d5bU, 0xbce3a4d83c3081daU,
  0x3e10e755bd866755U, 0xbd1c3c6dbce2f4d5U, 0x3e4047db3d384e13U, 0xbeb8ed53be48c7edU,
  0xbdeed3c93e155748U, 0xbdab81253d206710U, 0xbd07857cbdf21c53U, 0x3d135cf6bdb7fbf9U,
  0xbe199b603e010c39U, 0x3e02bc99be2c037eU, 0xbd831932be49e4b6U, 0xbe8c4bc9bd54f34bU,
  0xbceeb4a03b8ed67bU, 0x3da5bbbc3cd4c95dU, 0x3c9d3ebdbc12e37bU, 0x3d32a7043db4d9baU,
  0x3e1b282b3af5b94aU, 0x3d2a926f3dcf3ab6U, 0xbd9ac1123c7cc8dcU, 0x3da40b30bd894243U,
  0x3d6b1dd13d43367bU, 0xbccc06e23d26d852U, 0x3dec30febd4a70b5U, 0xbdcbbbe1be839ea1U,
  0xbd8062013d549a24U, 0xbdea2762bd57fcdfU, 0xbd13c409be705755U, 0x3e095495bd54a7a0U,
  0xbd61f8ccbdac8ef2U, 0x3dd14f11bc9d74e8U, 0x3d00f3f8bdc58f3eU, 0xbcb7de01bdb5e9c2U,
  0xbd8f7acd3a3e05adU, 0xbdd047c83ccbe3abU, 0xbddc71753cbacbf5U, 0x3df47c093cd49ca1U,
  0x3d1721973d1a9c2cU, 0xbd413d56be2af314U, 0xbc33152abdaf7099U, 0x3d21a5a23cc36c0dU,
  0x3d86c8af3d870e57U, 0x3c4a31bbbd6e085fU, 0x3c6a53e6be6899c9U, 0xbd3864c4bccd451cU,
  0x3c201d04be546d47U, 0xbc91cbbf3d74d2cdU, 0x3c9fe6fcbca20aeaU, 0x3d5c527ebe3b42b9U,
  0xbda4a3453dbf5029U, 0xbd3a8645bdb33650U, 0xbdbbe221bccad97cU, 0x3d8ffdc33cb1030bU,
  0xbd5bf88e3d97b664U, 0xbd18b68fbc8ad0ebU, 0xbdc118c73ccf97beU, 0x3e12c086bd0beee8U,
  0x3da24312bd134ecaU, 0xbe44b2c33e1bb35aU, 0xbde4fb2f3d8b3374U, 0xbe3be86ebe162101U,
  0xbd48248cbe2c495cU, 0xbd891c3abd10485eU, 0xbc368d9bbd9ce15aU, 0xbd3e2a6abe1d24f5U,
  0xbcee71ca3de8de9eU, 0x3c323ff9bde8d861U, 0xbd4057ffbda3b4fcU, 0x3c5dc052be0ee1e6U,
  0xbe83fc443e664ec7U, 0xbd56b3b83d2b98bfU, 0xbe6d24aebe08c6d8U, 0x3c0903783dd3f3b9U,
  0xbd234f64bcee7e62U, 0x3caf34e13d8ff61eU, 0xbe3624be3ce21225U, 0x3aa04069be15abf2U,
  0xbc388fce3bb2ec11U, 0xbde978db3d686d4bU, 0xbdecd3953e35649eU, 0xbc19d19fbd4f5d29U,
  0x3d9036ef3e07a4efU, 0x3d9a0066bd89a99cU, 0xbd29ca8abdd0f623U, 0xbd3408afbd8b1f36U,
  0xbe5088fdbd0f943bU, 0x3d80c8c13c304f29U, 0xbd679f663b8b9cbcU, 0xbbf089b33dc9fce8U,
  0x3d82b866bdb6a5a3U, 0xbd933c3a3c279da2U, 0xbe3e27023d1c1a92U, 0xbcabf30fbb58244cU,
  0xbd8b4dccbdbe398cU, 0xbd0e382bbdd10c83U, 0x3c08120739b0e21fU, 0x3dc7f8bebd3e6e2bU,
  0x3d476ec23cecac5eU, 0xbc55968cbc0a2a10U, 0x3bce53babc45b8e0U, 0xbdb8d908bbb8ff72U,
  0x3d4a3b05bd202ff5U, 0x3d1bbc133d96c188U, 0x3ce2e8c73c967942U, 0xbde49607bd543427U,
  0xbb95a25dbc86cc2bU, 0xbb29eebebe1b3ee7U, 0x3bbb83c3be39f3baU, 0xbdf1f839bdb4abd5U,
  0xbdcd78dfbcbc69f3U, 0x3dae4206bdc419fdU, 0xbd46e65bbd8f3bcfU, 0x3dbba03b3ca63133U,
  0x3deee8c53bb7d369U, 0xbc10c108bd05bb09U, 0x3daab82a3b86b68cU, 0xbda6054dbd094ca7U,
  0x3d3732ae3d0908e2U, 0x3d3160893e031ef5U, 0xbc9d31ef3be03032U, 0xbdfe5317bcf7cc70U,
  0xbd57a2b8bcd0602aU, 0x3dc1909dbd973d2eU, 0xbd3a496cbd0048ccU, 0xbdbd5678be18d7e8U,
  0xbde03f5dbda4257aU, 0xbd6ecf41bdb441b8U, 0xbe00eac5bcd67a7fU, 0x3d5d8814bcb0e340U,
  0x3d7ca9cc3c959c3fU, 0x3beb542fbd1722ddU, 0xbcc3040e3c8b1005U, 0xbdfa81d0be29c1baU,
  0x3e1275c43d71e3eeU, 0xbb02bab739d8f644U, 0xbd74df39bc1238b5U, 0xbdb90d8b3d260d3fU,
  0xbd1a9425bb926341U, 0x3dfb86f2be5d4cbfU, 0xbd6bc0af3d881f8eU, 0x3d0a4858bd7c73bdU,
  0x3e0e43e43d889605U, 0xbd56eb90bbfd8231U, 0x3d33849dbdc74600U, 0xbd28e402bd4191a7U,
  0xbe01c81cbd6d0315U, 0xbde84a7cbe2de650U, 0xbe1a3c6a3db0b9adU, 0x3e0082b63d99ba0bU,
  0xbcf27364bdbd83beU, 0x3dc316603b5e1eb9U, 0x3dfa17563e17665aU, 0xbdeac145bd079d73U,
  0x3c43193fbd6b0ac9U, 0xbe139f5d3d69cb11U, 0x3a9d0967bea12259U, 0xbe9bfa253d6fe107U,
  0x3aff011bbd6b65bdU, 0xbbbfcc81be0e7221U, 0x3d6f7943be039aadU, 0x3dcfb05abc158ddeU,
  0x3d2f75c83d5df54fU, 0x3be49f17bb9313eaU, 0x3cbb8ac9bb41b88cU, 0x3b22dca4bd065618U,
  0xbd684ecfbd694985U, 0x3d9c4e123d679186U, 0x3dbd16acbd9b592eU, 0xbe1f8fd13e1bab94U,
  0x3c765449bcb1f43dU, 0x3c6be12f3d02c8e9U, 0xbc61c571bdced304U, 0x3dc76920be0bd2c0U,
  0xbddf83df3ce2fb83U, 0xbc0ff57cbcd66283U, 0x3dbce418bd566439U, 0x3e644b203c0870b9U,
  0x3e0c5f753dbd2632U, 0x3dd1e7d83d3fbefcU, 0x3d6127453b1af7f0U, 0x3caa861c3e3db760U,
  0xbe299bd83cf01318U, 0x3e0af4ba3e05c2bcU, 0x3dbd60943d4dfb2aU, 0xbd869b59bba48c0eU,
  0x3e3065b1bc8c6989U, 0xbd280597bdcb988dU, 0x3c4cd838be6b80b6U, 0xbdbb2fedbe5cea51U,
  0xbd8ec6143c85722eU, 0xbbed9c223cd5d379U, 0xbb46ee48be534e2aU, 0x3e20631cbd45fc23U,
  0x3ccbca3c3cfaa4b4U, 0xbe38bd03bc930d52U, 0x3d1fafd2bd29f531U, 0xbdaa970abd4c8b1eU,
  0x3e6057ecbce1b5a2U, 0xbca38f633e717670U, 0xbdb55bd43e3a6457U, 0x3d8ee89b3d959c46U,
  0xbd3c59a23d5960ceU, 0xbce2b61c3db2a12bU, 0xbd0eebcdbdd42cb3U, 0xbdb080ed3e0713e1U,
  0xbd8b27f5bddf5acdU, 0x3dd213a7bd35e3a6U, 0xbdf0720ebdfac2f0U, 0x3e60a8a4be2c2efeU,
  0x3db90d083d284000U, 0xbe15ba793d872221U, 0x3e02686ebcb5700dU, 0xbdb4374fbe425580U,
  0x3e8d51debd39f8d7U, 0xbd84deea3e1a378dU, 0xbdeaa3fb3e09b166U, 0xbbf0c7863c313983U,
  0x3ce0f376bd63fdd4U, 0xbdf4a2f0bc39859cU, 0xbd849c2dbd0df3deU, 0xbc0024cf3c6b43cfU,
  0xbe391dc3be07d515U, 0x3d7dab88bdcf1740U, 0xbc80ff4bbc8f9741U, 0x3e5078fcbe2f762eU,
  0x3da9350e3db5ce3cU, 0xbe09bf4b3d8ee4b8U, 0x3e415ecabc89ec31U, 0x3c8f094e3cdff689U,
  0x3e2027a6bc1f104cU, 0xbe4cc8fe3e48f17eU, 0xbdca1ed63e4821b6U, 0xbbcd84b53dae3d96U,
  0x3d89e64d3c31d3f5U, 0xbd3b7ccabdbccb59U, 0xbcc8effabcc2e914U, 0xbd7f9b42bca38d6aU,
  0x3dbd45cfbd323beaU, 0x3c62c491bd3e2342U, 0xbe24f972be2cd26eU, 0xbd2253d5bc6a4026U,
  0xbda671f53d927310U, 0x3accb8e1be847210U, 0x3cebcfb33d47ac81U, 0x3d9fd39bbe059d7aU,
  0xbe0e88d6bda8ba50U, 0x3d2b6daebd974504U, 0x3d17d0eebc94abbcU, 0x3c9281893d331df7U,
  0x3d548dac3e4c056dU, 0x3cecf8283d85c257U, 0x3bbc21bd3e2ffedfU, 0xbd6cb74d3e27c4deU,
  0xbd22f5cbbdab3a5aU, 0xbdffa9c9bd070ea8U, 0xbe30e4b3bde4dbadU, 0xbe11e706bdf6ab2bU,
  0xbe2da7c7bd356f98U, 0xbe315b16beaa0cc3U, 0xbdb556d3bd3c4bcbU, 0xbd8cbfabbd7c0751U,
  0xbd1296313bd313c8U, 0xbdba075bbdc4eabdU, 0xbbb7c1d43ddac405U, 0x3df3d7ef3e835f55U,
  0xbd669cdf3c904b14U, 0x3dbf844cbbc7acecU, 0xbd788d323caf84caU, 0x3e5f4f193e14bbd8U,
  0xbd8684eebda7d87bU, 0x3d99c3a63d141774U, 0xbd07c778bb0974ceU, 0x3d323faabe2276e6U,
  0x3e08daf6bdfe49adU, 0xbd99913ebea09955U, 0x3e2ae1a5be5253b9U, 0x3dd4be16bd9bcabaU,
  0xbe0626e93d188205U, 0xbd23a0843e8ae033U, 0xbe2b9680bcf7f7d3U, 0xbdd25bfabe69c9b5U,
  0xbdf2d8f7be1783a1U, 0xbd4de3043e6c9fdeU, 0xbd85de8e3df276dbU, 0xbe35eb743d74a71dU,
  0xbe7f98ffbd00b58aU, 0x3d85d4e1bddbe5e8U, 0x3ce6cd3ebde1925cU, 0x3d8ed444bc8ecb99U,
  0xbc4f7b613d26eb33U, 0xbd985c153db3add3U, 0x3c62b341bd918f84U, 0xbe1216033c8f2480U,
  0xbacf8ef1bb80bc21U, 0xbd8850443ca7651dU, 0xbd2053963d2644d7U, 0x3cf9134b3d0fbc2fU,
  0x3cca79c2bac017c0U, 0x3b1b92b53b462877U, 0xbdb910e63d2f0885U, 0xbca5b07bbe3e4bcfU,
  0xbe60166bbd437fb8U, 0x3d8af9fabdd743c0U, 0xbd25ad943d60ea4aU, 0xbbb81797bd6bc9b5U,
  0xbd8ac2c63d0690cfU, 0xbd4b067a3ae94de9U, 0x3d4efe743d3a208cU, 0xbda6021b3e1cb3eeU,
  0xbd8fb4e9bd78db9bU, 0xbd861703be2a781dU, 0xbd0d7be53ccbf66bU, 0x3c47b8763cb5d199U,
  0x3d1780ed3c98985dU, 0x3d7dc7e43d0671b0U, 0xbdbd2731be23463eU, 0xbb829438be4eb195U,
  0xbdf6f0223d87fea0U, 0x3c88b34ebdfbf7cfU, 0xbd8f11883d5ad98bU, 0xbdb7ddc83d7d021aU,
  0x3cefe982bd1a2594U, 0xbcb90b88bde3423dU, 0xbd2397113da404c3U, 0xbe3ed057be1d7ec1U,
  0xbd17489cbe23de35U, 0xbd35a4c7bdc84ba6U, 0x3cb373e43d0bf41bU, 0x3b2c30013dcca649U,
  0x3d60576a3cc3fe1cU, 0x3ca4d784bd3ae00aU, 0xbdd689413d0b0416U, 0x3db17626be2cb095U,
  0xbd5f8324bc1c372eU, 0xbe105e4bbe003c87U, 0xbb5210083d84a730U, 0xbd2056c5bd0d42d5U,
  0x3d951a103d25f916U, 0x3d1cfa4d3c9336e3U, 0x3dd4085dbcbdf58cU, 0xbcf45f71bdba5f57U,
  0xbd3794793d965159U, 0xbd7258803db44bebU, 0xbc189e8fbdf73830U, 0xbdbb68ebbd98df5dU,
  0x3b893864be58d480U, 0x3d97910ebe6b7c8cU, 0x3d50ee823d9acd3aU, 0xbe0b51343bceb1daU,
  0x3da868b03db6960dU, 0xbe0d007ebd8d982cU, 0x3d801a2d3de685f2U, 0xbdbd010d3d48162eU,
  0x3d835b013d34b3c3U, 0x3d095b7ebdc3afa7U, 0xbdb69db2bda79e25U, 0x3c95a769be08e671U,
  0xbd9864a9bd532431U, 0x3c6ab39f3acc8697U, 0xbc0b9c18bd7bd212U, 0xbde63055bc02a1ccU,
  0xbbdc4e17be99c1bfU, 0xbd5239eb3d122380U, 0xbe033b053d281d82U, 0xbd3a88e73d97e12bU,
  0x3dae85c8bd313b6fU, 0x3db537c2bda91a97U, 0x3d408329be141726U, 0xbe16d7e2bc74b36dU,
  0xbe1ee1b03c412183U, 0xbd8e8c75bc41f563U, 0xbe1b9894bd0f14ccU, 0x3cb980ff39889101U,
  0xbda1f5d0bdfb05c9U, 0xbdee4793be1a7bf9U, 0xbd69b46bbc065954U, 0xbde3b5f23dac67afU,
  0x3dd13e07be5d38a9U, 0xbe1eea233dd1dcf3U, 0xbd36fcfcbd00adfdU, 0x3d9c46563dc32cbaU,
  0x3f0827ac3f43ad47U, 0x3e2be6cabe25c720U, 0x3f2534fa3ed65a17U, 0xbeb3f9493d39cce0U,
  0x3edb29953f631ae8U, 0x3e596e683f036590U, 0x3e55d4503e84cc55U, 0x3f42b28e3f22ea60U,
  0x3f0981123f31f671U, 0x3e935a54bf8f36bcU, 0x3e215bb13f4e18d3U, 0x3f80dca53da720d8U,
  0x3f0828ed3f386f06U, 0x3e93f48abf815b84U, 0xbf11cfd33edb8732U, 0xbe35aed13f2758a4U,
  0x3f10a8fb3eb7b766U, 0xbe9ebb203f3342e8U, 0x3ece8ed5bdfe8c18U, 0x3f32b536bf267fa4U,
  0x3f0719eb3df59d10U, 0x3ecf9c1ebee9cd94U, 0x3ef77679bf506a46U, 0x3eb7c9063f47e526U,
  0x3ef1ef6c3ebde368U, 0x3f1245ef3f2bdc51U, 0xbeb462d93c99b760U, 0x3c870e303f3ccb81U,
  0x3f1de6ca3f2bc206U, 0x3e7dcd8e3f0425bcU, 0x3e908e13be766da3U, 0x3f467de23f37d8e8U,
  0x3dd588a7bd2b23aaU, 0x3b91d708bdbe9e45U, 0x3d0f9c0f3deb850cU, 0x3cd3a9b2bd2f855fU,
  0xbcb5470e3d87173aU, 0xbd9fd3cfbdc9c4a8U, 0xbc28668b3dd957cdU, 0x3e0704383dfa63fcU,
  0xbe3fe5e63e57b499U, 0x3d2af732be0991a8U, 0xbd4a0439be277ddcU, 0x3de28a24bce7200fU,
  0xbe062dfabd6a0347U, 0x3b24d7b9bdabe6b1U, 0xbe6fcf64bce7a123U, 0xbcd1454d3ddef6d5U,
  0x3cfe26cc3e1028ebU, 0x3d02a7f33e38719cU, 0xbce68cc6be5d0bd3U, 0xbe1043083db8be7aU,
  0xbc9e52193c4ca3caU, 0xbe301a56be5e2085U, 0x3d90dca93e06cf3fU, 0x3e811e56bdb0ad73U,
  0xbea45f69be4e9bacU, 0xbe602d68bd960a31U, 0xbe3af5563d2f6e65U, 0x3de4b8263d704ba3U,
  0xbd201bbc3d60a54fU, 0xbd5293ccbdd57818U, 0x3d9591273d15523cU, 0xbdbd82f73d67b7b9U,
  0x3e0ff75e3d7e31b9U, 0xbc3b841abdc200daU, 0xbe138a1c3b970f7eU, 0xbd553726bd274659U,
  0x3e83b24dbdfb07e4U, 0xbd50eba9be10aba9U, 0x3da3e4edbcb27bdeU, 0x3e451b313db392d5U,
  0xbc99ca573dad1cb1U, 0xbdb656ad3dab3e20U, 0xbe237db6be44fa8eU, 0x3e05d0373c6d9668U,
  0x3e4fff18be041878U, 0xbc17c8183d87e6d2U, 0xbe833d4ebd4fc0ddU, 0xbe0d6f2a3d803bf5U,
  0xbe79e01fbd30c2a3U, 0xbd5cd75dbae96d41U, 0xbdd63fa23d028b88U, 0xbdda1ccf3db8eaabU,
  0x3e236f943e0371d8U, 0xbd1a59573c5ad526U, 0xbdc457263bbed9e3U, 0xbcfb1cad3e593a35U,
  0xbe916650be6bd588U, 0xbe62b4da3e5c5847U, 0xbe34bff6bd39c3faU, 0x3df35f293b7bdacdU,
  0x3e449567bdbe8780U, 0xbe0893e73db9cab8U, 0x3e55571ebd1893e6U, 0x3e12e8d6bd0ffb9dU,
  0x3e579e8d3dca7f41U, 0x3dfcc352bbe93f22U, 0xbe518905be7045d0U, 0x3db7a0a7bdf921eeU,
  0x3e9db0b5bdf40d24U, 0xbe5423463e775980U, 0x3d78ab74be2b34ecU, 0x3cc288ab3d013f43U,
  0x3d01fce03e66efd0U, 0xbe8a6728be50e1dcU, 0x3dbb4f323e58971fU, 0xbcab6bb1bdfd6e9bU,
  0x3e4c199cbe011e13U, 0xbe333603be32096dU, 0x3bfcd6763d3d12d8U, 0xbe2c598e3e916d97U,
  0xbedb6520bebb2cbbU, 0xbe7f4b1abe0d2c9eU, 0x3d1ef4983e6babc1U, 0x3e384815bd35ab86U,
  0xbc33657d3c622f2eU, 0x3de72c0e3ce65561U, 0x3de23d2fbd9c125bU, 0x3a984a7f3e8b200eU,
  0x3ea2f834bde6151dU, 0x3c06f4b93d89aad2U, 0xbe00f474bd8514f7U, 0x3e97f91cbe188eeeU,
  0xbe90ff593f0a51d9U, 0xbe4e7bc23df337c6U, 0x3d28a1debe193c98U, 0x3e27ec62be05a337U,
  0xbd0692d0bcc529a5U, 0x3e084637bc446c3eU, 0xbe13fd00bd1b7511U, 0xbdba3737be43adc1U,
  0xbe50397abd3d52d3U, 0xbe8a3d1bbe227783U, 0x3ba166e63e9f207aU, 0x3c058352bc83323aU,
  0x3c2a41623e59ade7U, 0xbe23c77f3cb4e9abU, 0x3e234d313ccce0ccU, 0x3e3637bc3d059350U,
  0x3d83dd8d3dab9ecdU, 0xbd010df33c2709e8U, 0xbe293830bc89919cU, 0x3e013b89be27aa09U,
  0x3c4d993dbe309706U, 0xbcd703973cae6f92U, 0x3d0e28b6be04f4d0U, 0x3d1faf01be581ab5U,
  0xbe161aaabd6afd4fU, 0x3e2123673df0d243U, 0x3c2b315ebd65f0bbU, 0xbe728becbce38ebeU,
  0x3dd13c3ebe584c51U, 0xbcbf38bf3e2a3c09U, 0xba939059bdca547fU, 0xbd6695f0bd8a1b51U,
  0xbe2e727c3d9c1626U, 0xbe6b77f63c4b8fc9U, 0xbe2e0522bc675126U, 0x3e241a313c9a2e95U,
  0x3e13ca1c3cdddabaU, 0x3aa1683c3dca63cfU, 0xbd8b056e3c71f5d3U, 0xbddb7e29bda393ffU,
  0x3cc66265be08198dU, 0xbe349383bd83ce7fU, 0x3dffcf83bca33d44U, 0xbd8cbbf5bc679264U,
  0x3d74eb1f3e207284U, 0xbe28cc663d79552dU, 0x3dad68533ec65638U, 0xbaaa22843cd71080U,
  0x3d3618653dbc95fcU, 0xbe7fde68bc8ac89fU, 0xbd820557bd995226U, 0x3e0f29063e2b346aU,
  0xbe4f281dbe4169a7U, 0xbc52d5323e11cfb1U, 0x3dd37bb83d10551eU, 0x3c998f90bd68b3e6U,
  0x3c9aaa4a3dc927c5U, 0x3d3fd4ca3e117870U, 0xbe53e173bacead8aU, 0x3dd2dff03de6ea3aU,
  0xbb093d40bddfbbd8U, 0xbc944c39bdefbef7U, 0xbd9f46cabe326e9eU, 0x3e2af02cbd10703dU,
  0xbd16bc803ce4da3eU, 0xbe489646bd830486U, 0xbe6e8c81bde3e738U, 0x3de67b5a3d5adec4U,
  0xbdfc8a553da2cf80U, 0x3d219d37bcd7113bU, 0xbe61c6babe6186cbU, 0x3d308740bd89202dU,
  0xbdb4e0eabdd95054U, 0xbe64bcfdbe368a80U, 0xbd0a4fa13e6a35edU, 0x3cecf42c3d09e8c1U,
  0x3dcb419e3e29a961U, 0xbca59c22bcf8d674U, 0x3d5838bf3d0d6e11U, 0x3e0abdc5bdcb7488U,
  0xbdc6b6963e190535U, 0x3e238f403e5bad9aU, 0xbe0d31ab3bf83dfaU, 0xbc2496693e945260U,
  0xbd2f9a12be3bd3d9U, 0x3e1979833c40de5eU, 0xbccda14fbe2a1d5eU, 0xbc6ffbd53cfd861bU,
  0xbe9614083e1e4a6cU, 0xbe02a1243da30cdbU, 0xbca8d5efbe6b1134U, 0xbd4b7deabdece47aU,
  0x3d42cf8ebea705caU, 0xbe5c5c08beaa91cdU, 0xbe414523bda72335U, 0xbb8dac5dbac3449bU,
  0x3d4658c43da542e8U, 0xbe3abec0be81d572U, 0xbda89cd2be8f99afU, 0xbd1b51e7bcb41c16U,
  0xbe2135193cfa3ca0U, 0xbe26f6003dce0d09U, 0x3d6ab2d7bd146b19U, 0xbdc27ae83e597b7aU,
  0x3d5e1a253dd79509U, 0xbd0ef35e3da77b98U, 0xbe2d51b8be3653edU, 0x3d165c383ea71407U,
  0xbe230299be705bc2U, 0x3e1b3a99be333511U, 0xbe0d2eab3ce5bc88U, 0xbd8564b0bd284668U,
  0x3ecc32953cf63044U, 0x3c4961f9be89f352U, 0x3e2f0a153d917dfeU, 0xbe0c6f3bbe9ae0cfU,
  0xbd5c271d3eb3a835U, 0xbd1d36f4be030d27U, 0xbeaa54653cfa2ee2U, 0xbcd8cf923e53c8f5U,
  0x3dc677d83d510716U, 0xbd65659abed00580U, 0x3dcc71a83e416e97U, 0x3dbacd0cbe2fc676U,
  0x3e5a4d8dbc82759aU, 0x3e2e35c13eb2a73aU, 0x3dc021fe3d45f6c0U, 0xbec3b6a2be3f1bf4U,
  0xbd99a0513d20df6eU, 0xbdae04353d81dd5cU, 0xbd204c6e3e803d45U, 0xbd19fb84bd476c86U,
  0xbe2c6f243e934f91U, 0xbd95ec1a3e31f083U, 0x3e15cde63d9b00fcU, 0xbe8767a03d18c316U,
  0x3cff7c933d2604d8U, 0xbd817f2a3d9b4aa1U, 0xbdb67e953ca1d416U, 0x3d3207ba3e056827U,
  0xbe2f5fadbd3f0dc1U, 0xbce1419dbe858d06U, 0xbdc3e5dcbe44d4fcU, 0x3e55252a3cef430aU,
  0x3d978311be269435U, 0xbab6ab53bd9ea50cU, 0x3d8ae62ebe194762U, 0xbdbf48e73c0f96b4U,
  0xbccdf7523e42b6d3U, 0xbdab63bebb1d53c6U, 0x3d9202d33d580d9fU, 0xbe64fb6b3bc10ea5U,
  0xbdb01fef3bd0510fU, 0xbe10c349be8e65bfU, 0x3e1f3cab3d9dc35bU, 0x3e16a339bdd20298U,
  0x3e912cc1bdfd56c3U, 0xbb5680b33c674e24U, 0x3e0962263daca2dcU, 0xbe59b5b4bd35e3d3U,
  0xbd66ba113d17873fU, 0x3dfb6a223c8a49ddU, 0xbe95d5df3cb9a805U, 0x3d928b223e2db211U,
  0x3dd9f4153c00216aU, 0xbe285e103e2c5f8eU, 0x3e47bbdb3e8dc094U, 0xbd750bb83dfb6d3aU,
  0xbe6d7d4b3cb89262U, 0x3db6db7dbe294030U, 0x3e29841abe3addccU, 0x3cdf6f843d4a3581U,
  0x3e9f414e3d6566c1U, 0x3bb477dbbe37e35cU, 0x3ec273e5bde0f187U, 0x3da535cebca1f6c3U,
  0x3d9bb746bc8ee852U, 0xbe1425ff3d6e9409U, 0x3d9dbcc33d00abd9U, 0xbcbbe054beb1a2a3U,
  0xbe765221be396cc7U, 0xbdff5ce1bea243a2U, 0x3e1a972a3d98e4bfU, 0xbe912217bea8dbb2U,
  0x3e884abd3e8486cbU, 0xbe9cce17bdf4bc68U, 0x3e633b263d79c87eU, 0x3e14c6bfbc5c3cc6U,
  0x3e57e478bd70163dU, 0x3e2454a7be80ca67U, 0x3e3a867ebdf83f7bU, 0xbe05535e3d3386eaU,
  0x3e08b588be451a38U, 0x3e99b243be83d0e3U, 0x3da7f57b3c1704d4U, 0xbcc58b1e3eba4d4aU,
  0x3d544281be491b21U, 0xbd9b4c043e3e7c7aU, 0xbe7f07173c3a5f05U, 0xbe2a0a3fbccee691U,
  0x3db8cea53d348680U, 0xbe507669bc06aeb9U, 0xbeacf6503d9c32e5U, 0x3c916248be4c017cU,
  0xbd2948263e851300U, 0xbda9b9fdbe83524fU, 0x3df3a5183e05019eU, 0x3dc96de73d6d4a51U,
  0xbd56f24e3bf7504eU, 0x3d8c7800be352724U, 0xbd0029dc3dc1043dU, 0x3d91777a3df4642aU,
  0x3d448f463de1a386U, 0x3c08e8a33cdd9d64U, 0x3e4a91013e569e33U, 0x3d0691b6bb81f0d7U,
  0x3d9b2872be0c7b1bU, 0xbdc02902be5fcbacU, 0xbd6479cdbd82e1c2U, 0xbe80180cbe040e23U,
  0x3c0a73433b967a8dU, 0xbe29a362be56a76aU, 0xbd95eaf23a53662eU, 0xbe64159dbe2819ffU,
  0xbed4eb3ebdcdfc69U, 0x3c61f0123e0b595dU, 0x3cebcb8fba82982fU, 0xbeb1d54d3db97d3eU,
  0xbdb537d8be2dc103U, 0xbd600c4b3e486dd2U, 0x3db2a7e6bd84b06fU, 0xbd9893b33d932207U,
  0xbe9f02b73c7235a8U, 0xbdad1947bdc0dfcfU, 0xbe359956be89a7f8U, 0x3e9348debd5ca66bU,
  0x3e30c5d73e3d47bdU, 0xbdfa91a0bdca1b94U, 0x3d836c843e15bec7U, 0xbc6b0cedbd547c0bU,
  0xbdc12bb93e2b278eU, 0x3cdb1ef6be110297U, 0xbd80a9e4bda79b20U, 0xbe23b5d83d57bd07U,
  0x3d2bd80b3d579a29U, 0x3d7420ef3ea7f815U, 0x3e65e6393e5c3c47U, 0xbe1182283c4f25ccU,
  0xbd677edf3c09bd28U, 0x3d72b604beb776ddU, 0x3dbbe1f3bdd2b275U, 0x3da472a5beb94f1bU,
  0x3d5528f53ca0117fU, 0xbeaf2854be9cba1bU, 0xbe212596b8de207dU, 0x3dab3e7a3e0ede36U,
  0xbcc8e27a3dc11305U, 0xb99657b43d8b9030U, 0xbd84fcd9bdff97cbU, 0xbc76f2383dc804c8U,
  0xbcf588b53d987a61U, 0x3c2356da3d145a3aU, 0x3e37cb98bdea1eb6U, 0x3cba1302bd31192fU,
  0xbe984be6bd4a5768U, 0x3cabcd703e0e15cbU, 0xbcff14ffbeb220cdU, 0x3e470ade3e475a29U,
  0x3e77a97cbef3fefaU, 0xbc9dcba13dd0813bU, 0xbd431b693c372d74U, 0x3d852ecabeabcd2eU,
  0x3cdb14fc3ded8641U, 0x3d0ca86d3e1c7df7U, 0xbe85abeabb78276bU, 0xbebc652f3d9a5b99U,
  0xbd9aa2fabd0ced12U, 0x3d43f850bdd4da0aU, 0xbdb953edba8104e6U, 0xbeaabe553dfde795U,
  0xbcdaf84c3cd8636cU, 0x3dd8c104bda0d03eU, 0xbe1e6e093d81d629U, 0x3e2accd2be1c0832U,
  0xbb8c2ef93d719403U, 0xbe1c204abdc82893U, 0xbe9d9387bc046bd5U, 0x3e43482fbc998b9dU,
  0xbd9336c2be8ae1edU, 0x3e0840853c1d9871U, 0xbdca3ad6bcc6a28aU, 0x3e47bc033e2e1c82U,
  0x3e248abfbddb71d8U, 0xbd6b39da3e26a712U, 0xbe035554bea0d930U, 0xbe6f139abe8ee329U,
  0xbe268f83be290edaU, 0xbe0e836abce57139U, 0x3cbe27c1be084636U, 0xbde998dbbe315818U,
  0x3e5946c13b84f9faU, 0x3e062301bc132a56U, 0x3d61ab46bd138b54U, 0xbcf89f733e05088bU,
  0xbd0f32e9ba7485f2U, 0xbe1c6d983cde6fcbU, 0xbc4adf683db42690U, 0xbdf2a4b7bcffb624U,
  0x3ce7855e3d9559e1U, 0xbdfe86e3be198822U, 0xbd13f70c3d98d370U, 0x3d8aab9ebe6f1691U,
  0x3eb3306a3ceefb3fU, 0x3e3041003dad930dU, 0xbe3a309dbe1d3e2bU, 0x3d1bbf6f3eb0af3eU,
  0x3d53e4ff3d48f0ccU, 0xbdb2b8a8be86d462U, 0x3d2dfec2bd5c427dU, 0xbdf5b220be4bb2b0U,
  0xbe5fbe05bde692eeU, 0x3df08feabe38c9dcU, 0xbe3d36253df0e9f0U, 0x3c88f455bd221ef3U,
  0xbd295ef8bdf0bf72U, 0x3d8ce9df3e879b65U, 0x3d598bd0be8a62efU, 0xbe3380663ccbf108U,
  0xbd6bb9b7be19fda3U, 0xbde9d0573d51bff1U, 0xbdbc832abcd82a72U, 0x3c8e8fb63df6d0e0U,
  0x3dfdebcd3e0c0d37U, 0x3e3607bebd9de55cU, 0x3d6de032bd80e14bU, 0xbda1ed3e3e4d8f2dU,
  0x3e0015d43dab148aU, 0xbcfcddf3be282b30U, 0x3e3778edbd90eea9U, 0xbd1ea70ebe0c08dfU,
  0x3e1e8b883d067d02U, 0x3c250b67be16d45bU, 0xbae609ef3d8df10bU, 0xbc595892bd999713U,
  0x3d9c7707bbb6925cU, 0x3dc6dc513dbabe87U, 0xbd7e64163d0c0b88U, 0xbda11c4a3e60f067U,
  0xbe33c9ea3d4b3b09U, 0x3e21e402be936321U, 0x3d61eb6e3c7e9ae7U, 0xbe6ac31cbe26c0faU,
  0xbece7a6e3dc63d71U, 0x3d85864ebe96e148U, 0xbe6b5408bd1cd4b7U, 0x3e743c943d43295fU,
  0xbebd845cbe0b3b07U, 0xbe28efaf3ecd2059U, 0x3e8a259c3e38fc7eU, 0x3c1e73e43d329066U,
  0xbe3e0bc0be165082U, 0xbdbfd6153e006aaeU, 0x3e1c1a2b3e204107U, 0x3e172d383ddd4926U,
  0xbe253c62bddea55eU, 0x3da4e6dabdbddfe6U, 0xbdb9407dbd4e0ec5U, 0xbca7f2c63e0cbccfU,
  0xbda8ac2c3ddda108U, 0xbc27d78dbdb334c3U, 0xbd3f82843c1f7cc7U, 0x3cbd48acbe876a32U,
  0xbd87b0753dabcf57U, 0x3e057b5cbe84faadU, 0x3ca9d379bde0e830U, 0xbe827d94be5d716dU,
  0xbea378893b7b0acdU, 0x3e52f0983e34e19bU, 0x3d0aeca03e08069aU, 0xbd0f1a553d50e152U,
  0xbd91a5fabde56ddaU, 0xbc44b1cabdbdd00aU, 0x3e0ad0d0bda1afcdU, 0x3e569ec5bdfd2119U,
  0xbe6e808fbe03b87cU, 0x3ea19b92be2b8496U, 0x3d968fb23db2b3d4U, 0x3a89dc383edba481U,
  0x3c69a45e3d83a10fU, 0xbde6979f3d4346d3U, 0xbe2142d6bd52b3acU, 0x3d9e1cb03d364767U,
  0x3d49157d3dfc3faeU, 0x3e04dce8bafb6aa4U, 0x3c9a27cbbc89f029U, 0xbb7534c6bdc837a5U,
  0xbe3469df3c376479U, 0xbd1fd5f0bdfd76bbU, 0xbdc8286dbd250922U, 0xb96105c43cf7e60dU,
  0x3dbcec70bd85c5ccU, 0xbce9654fbd889158U, 0xbe3a7d6d3d241698U, 0xbd8593c33d83b250U,
  0x3e6fcac1bd43191eU, 0xbd4d8da53d9bb0a0U, 0xbe47e22fbc9cb6deU, 0x3d9752f13d83603eU,
  0x3d6aa0bf3c4a804fU, 0xbe6d9c413d1ddafbU, 0xbd4b80283d82f016U, 0xbdba50013df1b97eU,
  0xbd167f3e3e96d93aU, 0x3d4c9af1be116a9cU, 0xbdee60c7bbca979dU, 0xbda4fa07bd55d7daU,
  0xbdb5b346bd9c7862U, 0x3d3a60433e213f94U, 0xbe4f2e72be184359U, 0xbde699293e46377bU,
  0x3e1a8bbbbda67088U, 0xbc934f813b8bbf0bU, 0x3dbb5307bdea6d41U, 0xbd0fabe6bb49b59eU,
  0x3cc0a02b3e4badf6U, 0x3d6e0df6bdae227cU, 0x3d5e009a3d06f696U, 0x3df054973d661876U,
  0x3d08d6ed3c8ef2e4U, 0xbd891fb0bda6141dU, 0xbdad23633df5e7c4U, 0x3d7df3013d1cbc4fU,
  0x3da1f14c3d02e9c4U, 0xbd116e17bc98c394U, 0xbe127c513dd97b3bU, 0xbb787e943e08b7edU,
  0x3e34ea92bbcf8f63U, 0x3dbbe6ed3c2a4b52U, 0x3cc07367bd517a5dU, 0x3d9682e83dbabe8dU,
  0xbcdf365fbcf88c42U, 0xbd9073fa3b980ffcU, 0x3b73542a3ce53157U, 0x3d4177ac3e34b4f7U,
  0xbda8b1433d51114aU, 0x3d3962983cbf390fU, 0xbdec333ebe5f1a3fU, 0x3d9e4bc73d4d646aU,
  0xbb6ef1913d212f7eU, 0x3c6511edbc0be2abU, 0x3cc224bebd4f8fd1U, 0xbc1574193dc91ef7U,
  0xbd895932bdbfb1f9U, 0x3e0f812f3dbbf0bdU, 0xbd0e7ecc3de0109eU, 0x3d9370013c6e564cU,
  0x3c9f2830bc4f60d0U, 0x3beae841bdef399cU, 0xbd784ca33da58690U, 0x3d7c16933d9f7b27U,
  0xbd85f562bd42668cU, 0x3c57269dbd2dcf8cU, 0xbe813d19be051664U, 0xbc0c03e53cabc69cU,
  0x3cfefee53e07ca3bU, 0x3d935e113d3be5deU, 0xbc2a5480bd8dbad0U, 0x3ca291343d930c44U,
  0x3dc806ef3d74ce37U, 0x3d9164983db60ba5U, 0xbdb6bf463c84c5d3U, 0xbe10e750bb7f7695U,
  0x3d2e66fb3c467539U, 0xbd8693e33d4f39c6U, 0x3d42c0b8bd4542b7U, 0xbab45279bc3d69f8U,
  0x3c98cd3a3dd2638eU, 0xbd3840c63dcc895fU, 0xbd91a9ccbe7fcf16U, 0x3e1c27ec3e026c8dU,
  0x3e3b023abc8b9d74U, 0xbd1b91513d8bbec3U, 0x3daac3573dd159bdU, 0x3db4f4ad3dcec53dU,
  0x3e98e21abe9d0b5bU, 0xbe1720363e42d7c2U, 0x3d52747e3e167e44U, 0x3db72296be080c0bU,
  0xbe1443ee3dd3856eU, 0x3e21fc75bc8ad188U, 0xbba9a1613ce85ca8U, 0x3e39daa43e560c40U,
  0xbd98f3dcbd2f1651U, 0xbda877d03cb0c3ebU, 0xbe209fe2bde3260eU, 0xbd9684a83e199a26U,
  0xbe0bd8cd3c9e5a00U, 0x3eeb299ebe9d81baU, 0x3ca1e0673d8f3119U, 0x3d3ee048bdce0832U,
  0xbe6694df3e282784U, 0x3d20a6683dced326U, 0x3cbb9d5e3e6bb4b7U, 0xbebd92b6bddb0ccbU,
  0x3d76df85bd81650dU, 0xbe6b434fbdc8859bU, 0xbdef99a2bdd0dc95U, 0x3e348bcdbebeeb24U,
  0xbc6fa8e8bd79edd3U, 0x3c81aa2ebd005dc7U, 0x3d8d7454bce0d2a9U, 0xbd2b4122be1d91b1U,
  0xbe585e8e3e6d5ca4U, 0x3d551ae33d9457afU, 0x3e7ec9213e1bca61U, 0x3dc402593e256f44U,
  0xbf18b4c5bddefe23U, 0xbdbb6b4fbdeee972U, 0x3e3f5a1ebea504b3U, 0x3d9f3f8dbebf05f7U,
  0xbe127f7dbafe46faU, 0x3e129e97be05b7f3U, 0xbcdfa37a3d01f000U, 0x3dfbd5d33e1a6826U,
  0x3e4efa16be9283ecU, 0xbe378e6bbcb38d44U, 0xbe74e7c3bd8a0573U, 0x3dc32a06bee021cbU,
  0xbe26d9863eaa6228U, 0x3e08d090be95e3a4U, 0xbe359808be3d4327U, 0x3d10322e3e74034aU,
  0x3d5c9b493e99f20dU, 0xbdb2b2dc3e270799U, 0x3dff3e28be081cd3U, 0xbe76ea11bdcf08aaU,
  0x3db560c63d00c81dU, 0x3c1ab810be570631U, 0x3e85cf3c3d5e533eU, 0x3e7e10a8be081ffcU,
  0x3d84d0f0bdae693dU, 0x3cd62baf3daa754aU, 0xbe7fcdcebdb5e3d8U, 0xbce1f4c13e84077fU,
  0x3e4dd3dc3c72dd99U, 0x3e373fbcbd8aac34U, 0xbdaf67ce3e897c80U, 0x3e9738613b7bb448U,
  0xbed52c813e5b8deeU, 0xbe1c9a2cbdd6b4bbU, 0x3caaef6cbeade3eaU, 0x3a81422b3df931a9U,
  0x3d8dc539bea5665dU, 0xbd272b063e1b5ac2U, 0xbe3f7db63dca80d0U, 0xbe3973d0be560782U,
  0xbcfc80153dc32af6U, 0xbe9e9d33bd9086d6U, 0xbbc65eb9bed3a9a1U, 0xbe571cb63bc205e6U,
  0xbe16a2313df24cf1U, 0x3de973efbded6d4eU, 0x3eadc9c9be19f9daU, 0x3d7b21973dcffba8U,
  0xbe0f969dbd9db081U, 0x3e144248beab5dc0U, 0xbdf47533bdd0ccc2U, 0xbe6cd7bfbd6bdb09U,
  0xbe6696863e15b31cU, 0x3e608f5e3d9992d6U, 0xbe961c543ea6d49bU, 0x3d34e5343d064f32U,
  0x3dca778fbe465f6aU, 0x3e2a525ebe86014fU, 0xbea7d478be70d9beU, 0x3e6c9a5e3c6f1224U,
  0x3e4bc4f43ccbf875U, 0x3e1f9774bd12f411U, 0x3dc795393e92040dU, 0xbdfb0e943e071c96U,
  0xbddd310bbe618679U, 0x3cf6c3663e13b8d5U, 0x3e3ce2c33e01438eU, 0xbd4370fcbc5be124U,
  0x3d1935d03deef12cU, 0x3daadeadbe0abb12U, 0xbe856cabbbaf8d7cU, 0xbcd595453d80d878U,
  0xbd63dd78be92cf5cU, 0x3d5ade0fbd790a40U, 0xbe0730bbbd9facc8U, 0xbdcffe883c90c861U,
  0xbe136016bdc10b2dU, 0xbd1a3cd2bd4b9addU, 0x3d730e1dbb822f71U, 0xbe370962bcfa1a8cU,
  0x3e5d66ac3e5aa2a1U, 0x3d3492543e07a5c6U, 0x3d96e50a3dc7c4ecU, 0xbe5a8bf53e2ec991U,
  0xbd6b3fefbe31cc54U, 0xbbbae047be29c78fU, 0xbdc92d17bc909c35U, 0x3e3b4dfabc519648U,
  0xbdd1150dbe8b9175U, 0xbe24d9f8bdbba979U, 0x3e6115f1bd414fb6U, 0x3e0f590a3cd7583cU,
  0x3e9526d4bcf81e44U, 0x3d9cc0ccbe0e8b93U, 0x3e085410bd184a9aU, 0x3daa74f13e3361ceU,
  0x3d0b8de3be32609bU, 0xbe66a395bd74abc1U, 0xbd3dbc823e4c4e2eU, 0x3dd3818cbe3efa1cU,
  0xbe143caebda916adU, 0x3d4629b23c0b6a70U, 0xbe3549473d21bd09U, 0xbdf69c20bca56940U,
  0xbddebcfe3d089d2fU, 0x3e0c3240bcc15974U, 0x3db358f8bebb6005U, 0xbda151db3d022154U,
  0x3dda17d43c671b96U, 0x3c786f6b3d6a2a28U, 0x3e2a68b4bd09c75bU, 0x3d844a37bd9a287fU,
  0xbe2df0d5bdae48ddU, 0x3d850931bc8e4a79U, 0xbdd004f83dd81748U, 0xbd8481edbd8618bbU,
  0x3e78d97f3e4bcf2fU, 0xbe9a0e7fbdc83897U, 0x3cae1aa0bdb7e10eU, 0xbc5885a5be0add21U,
  0x3dd9f2f9be8e3f9cU, 0x3dc7bdb1be210c4aU, 0x3d848123be10eff6U, 0xbe161336bdc97359U,
  0xbc7fb1d2bdce04a6U, 0xbd7de2e1bea6f131U, 0x3cb3e1613d942655U, 0xbdec4ff53a40918fU,
  0x3e2a5d2dbdb51c46U, 0x3e10100abd926442U, 0xbe654835be28e654U, 0xbd520115bd631ab5U,
  0xbe600440be2a62afU, 0x3e0eb8a1be2799e8U, 0xbdea64053e7fde6cU, 0xbe4d7be5bd375633U,
  0xbd9d75bb3c31249cU, 0x3cbafbf53cfc2e58U, 0x3e31c086bcbd9814U, 0x3de82df63dbdb03eU,
  0x3e5068d33d9bc589U, 0xbbe7b8e6bbd56f55U, 0x3c84bf1fbe486fdeU, 0x3dd53b383dba2d85U,
  0xbdbb0f42be17b22dU, 0x3df4280fbe18c13cU, 0xbe5a3aaa3e27c548U, 0xbce765a5be5fa949U,
  0x3d871f5b3d1b599aU, 0xbddacf33bcbff848U, 0x3bc821febd8bf87cU, 0xbcfdaa573d9ba314U,
  0xbd449f99bda7b27fU, 0xbb4ac824bb7249d7U, 0x3d957ac0bdd4cfc8U, 0xbe6c13373e39cd1fU,
  0xbe80bf4fbdfc3ecdU, 0x3e684be1be822f57U, 0xbda456a33e83adfeU, 0xbe2af4f9bdcb7430U,
  0xbcbff76ebe3f1509U, 0x3e8ba9f73e08a2b7U, 0x3daa4bfd3d51eb64U, 0xbe3739163b677901U,
  0xbe3f0edabe9f4e36U, 0xbe3f21dcbde87f74U, 0x3dfce7443a09316dU, 0xbdd09a613c02ee90U,
  0xbdb2d83ebb37e3f5U, 0x3e5c0cd73cfb9adeU, 0xbc997877bdfd1a37U, 0xbca191763d93c40cU,
  0x3de26ab4bb817200U, 0xbd09a6bfbe9fb043U, 0xbda7f1ea3e247434U, 0x3cf46eda3cfc7697U,
  0x3cee780f3db07fbaU, 0x3d839cba3e2296d6U, 0xbe05fb543bb9edd7U, 0x3d0632f9bd9cede5U,
  0x3e435ad83c6ba574U, 0xbd28526bbc44a8f1U, 0x3d339551bdd15c96U, 0x3e2a47f2bdc899c9U,
  0x3d55a025bd371a9dU, 0x3d3920853d24a1bdU, 0x3d425f4bbd10c9c9U, 0xbd02e92abdcd6307U,
  0x3d73bdd7bcad9c12U, 0xbe81f8c13dc77ec9U, 0x3dd7be403e349415U, 0x3d1238793e6f6bdcU,
  0xbbcdbf69be456ad3U, 0x3e047edc3dab1ab0U, 0xbe211c353c972340U, 0xbe9acbc3bc67a2e5U,
  0xbe9f4b15be8bfc17U, 0xbd810cf2bda63b93U, 0x3e07b02d3da09fa2U, 0xbdeca2093c7a2e2bU,
  0x3e5f74243e2a4be4U, 0x3e6da6763d0b3e3aU, 0x3b4caf883dfa1a9cU, 0xbdce610e3ccfd53bU,
  0xbd1d7b89be48a5f6U, 0xbc8b8bf5becdaa34U, 0xbde00b303dd2f0aeU, 0xbd5ce84cbd7548a5U,
  0xbe2778f53d69c2d7U, 0x3e43bc14be8d142eU, 0xbd1685c13d5eb661U, 0xbe1dcb7abe5ccd44U,
  0xbcf564913dd6d377U, 0x3d8705053de5c746U, 0x3e43be1bbdcfa7a1U, 0xbe7c5cebbe4fb23aU,
  0x3d3346acbcbb3aafU, 0x3ce0e0ff3e5340cbU, 0xbd9dbdcabe60983dU, 0xbebce466be37c8dfU,
  0x3c0aab743e204ba7U, 0x3d0716a33d5946f3U, 0x3e726eab3e38b154U, 0x3e9b0e24bd9246adU,
  0x3eccb215bd6604a4U, 0xbd30a8b13ec05752U, 0xbd0138db3cd27017U, 0xbdc575e5bda6aaa0U,
  0xbe80cb32be2d3666U, 0x3e88bcd9bd059699U, 0x3e9578f73de8b6c9U, 0xbe3beb45bd2da517U,
  0x3e8219d03e56618eU, 0xbd00a24e3c43bb18U, 0x3d88798b3e548b76U, 0xbd475a0f3e11fd0bU,
  0xbe9bc7a5bd385324U, 0xbc13b7bdbe556de0U, 0xbc8e2b65bd894ff1U, 0xbcd8346e3e30d6acU,
  0xbe30246c3d2cd036U, 0xbc54aad5bb3185adU, 0xbc865bc93d3049b1U, 0xbdec7f10be5fb745U,
  0x3e50b6a63d7dae21U, 0x3e114f593dfd0506U, 0xbd6e9b91be337afbU, 0x3e6295123debb7e7U,
  0xbd058058bd889d10U, 0xbd639c52bd7cbcc0U, 0xbbe5f759bda2344aU, 0xbd57f6c93deaf4d6U,
  0x3d82960f3c344113U, 0xbd65bf4ebe96853cU, 0x3d5d86f5be51f6a6U, 0x3e6a402c3df06536U,
  0xbdf311433d4317e0U, 0xbe47eefabaca3c27U, 0x3d67bb64be1d8870U, 0x3da6b024be297b01U,
  0x3cd77e433dac8ffaU, 0x3e23ff083e0f526fU, 0x3dc484c33e3671dfU, 0xbe1d3cd5b9f1a537U,
  0xbdc8466e3d4c4db9U, 0x3de8ba393d3fe775U, 0x3d91f6e8be1c8289U, 0x3c921f34be590eebU,
  0x3e27ac583cd7b7c5U, 0x3da6d233bdcf72aeU, 0x3dd57e4e3da30df5U, 0xbc0cd3d8bce83f79U,
  0xbbdf5d5f3db9cc3aU, 0xbd11bd51bd020200U, 0xbd1231063e05943eU, 0xbd1d2a6eba8fc7ecU,
  0xbe1379a7bddc078aU, 0xbe0664853e82d377U, 0xbdab42ea3e005beaU, 0x3e1fe1373d7b3ae5U,
  0x3e078fe3be875508U, 0x3dcb2d513e51ea6dU, 0x3d46a48c3e007821U, 0xbd8ab7193d3f121aU,
  0x3e452f41be3774a7U, 0xbd4839313e1b0bffU, 0xbd493c483e2d2371U, 0xbdbdc1603e2adf34U,
  0xbe5870333e05075bU, 0xbd8bd9a83e2dd756U, 0xbdd22ffcbe2bdc83U, 0xbd062146be37331aU,
  0xbd183cde3df83112U, 0x3dfca0633d9e4692U, 0x3e44a2553d711411U, 0xbe3373003d1d9f70U,
  0xbe3d299b3e98fa62U, 0x3e11745fbe801d58U, 0x3db48b60be403e7eU, 0x3debf22dbdd69822U,
  0xbd80fb873de0f5d9U, 0xbda3beb9bda78b92U, 0x3e1dd733be9fc117U, 0xbe4534f03cf4de48U,
  0x3de5cc123bd2a07aU, 0xbb81546fbc86371bU, 0x3db457563ccb39ceU, 0xbd894db0bda3df59U,
  0xbdf062b8bdeb54a6U, 0xbe385fd63e8d633fU, 0x3d0176783df1302eU, 0x3d50a3333d10ff69U,
  0x3e3975e9bf08dbe1U, 0xbda814533dd929bfU, 0x3d4bfb6f3dff2fd7U, 0xbdeb275c3e1b84c9U,
  0x3e846ef1be65ef57U, 0xbd7bdfd5bc5039dbU, 0xbec6125ebdf32868U, 0xbd59c3103dafcd06U,
  0x3d1cdbcebda51990U, 0x3e5835503d785d4aU, 0x3d60f6da3e0db8d6U, 0xbd99f1a4be2e80bcU,
  0xbe509c403de0bd03U, 0x3e105b41bde07cbeU, 0x3e012010bd03b1afU, 0xbd2e0c823da11d78U,
  0xbe7edafc3e6137eaU, 0xbdd6cb34be9430edU, 0x3d8b0773bdd17e25U, 0x3e0e3ea0bd5cf537U,
  0xbcb30e8a3dfd4b30U, 0xbdf6c3813dbf4425U, 0xbca4cd2abe12ca1cU, 0x3d5845d33d3aae11U,
  0xbd045b5fbde82276U, 0x3e3d7714be118309U, 0xbd0cb7c93d9f600bU, 0xbb2527b5bdcb368dU,
  0xbd8817233b769d0eU, 0xbe0faa383ea1d941U, 0x3d32e63cbc145665U, 0x3e3eff0b3c69fc42U,
  0x3d970157beb5d082U, 0x3d7d96fa3dc07441U, 0x3c736e5ebe05f3e0U, 0x3d3174e03e14099fU,
  0x3e4a554d3cf9b0b2U, 0x3d2d11f0be445377U, 0xbe646311be7d4235U, 0xbd73985f3e198401U,
  0xbb67114dbe17fe2aU, 0x3e2798263c01459dU, 0x3dd628703e07a9c4U, 0xbebb6ba63e181484U,
  0x3dfee57f3e1bf52cU, 0xbdf33863be851f56U, 0xbd1b99283d395949U, 0x3e7626e4bd63cbb4U,
  0xbdb0a43bbe0668a5U, 0xbe013e90bea72433U, 0xbe03c3553d6d7d76U, 0x3e9adc2cbd060435U,
  0x3e57d7d13e2172b3U, 0xbdc051c3bdfc407eU, 0xbcb644e43e4d0a14U, 0x3ce9bf703d2c1e21U,
  0x3ba1d213bc7bc875U, 0xbcab99e83e530533U, 0xbdda29f7be242ed6U, 0x3cddb7f5beab46f5U,
  0xbdcf41833dac81e6U, 0xbe780a16be3fe0ffU, 0xbdff9504be1b790fU, 0x3e453e263ee9131aU,
  0xbd6d4e223d007218U, 0x3df89ba7bdf0086bU, 0xbe3b37c6be834c3cU, 0xbd7e159abd6bb517U,
  0xbe77c3823d8fed6bU, 0xbe161fc9bddd69b4U, 0xbe0e73bcbe165e47U, 0xbdc64e1c3e12b219U,
  0x3e79287ebe43c4cfU, 0xbd27121fbc51f4b7U, 0x3e276e103d157680U, 0xbe5b1ba53e150383U,
  0x3d7a56623db7d5d4U, 0xbe3549c2be92cf97U, 0xbc68bc2cbbee32d9U, 0xbccdd368be3d283bU,
  0xbdcafe2e3dc074dcU, 0xbdb4b544bc9e09c9U, 0x3eae1a0b3e019283U, 0x3e80e65c3df4631dU,
  0xbc7d1a7c3d8405c9U, 0xbd88d240be1984a7U, 0x3c7b58673e575d77U, 0x3e0c5ffaba297357U,
  0xbe5509a1be0f0719U, 0x3d77666e3db5fe97U, 0xbdadec9a3db9e3d5U, 0x3df10326be6b7594U,
  0xbe517ccf3e0be262U, 0x393c42be3dfbebf2U, 0xbca0b6333d80ade8U, 0x3e4cee423eb27148U,
  0x3caa34513b8a5756U, 0x3e1b92c63cbd6a31U, 0x3daaa30f3c82fbacU, 0x3dc9491abe2d7f5bU,
  0xbd98f63cbcba37eeU, 0x3b9947633b33cfbdU, 0xbe1c9ee9bde5c890U, 0x3d6c26a63e03a72dU,
  0x3db5860dbe0f93a4U, 0xbd70a4f33e00f36bU, 0x3e1448a6bded9b87U, 0x3de33c6abdc51adfU,
  0x3ce8e176bb98396aU, 0x3d671faabdfe08b9U, 0x3e91a0793db79f6dU, 0xbe190ae8be7304f2U,
  0xbd84c283bd711ef9U, 0x3d90f98e3d067810U, 0x3ebcf1eb3eab3b30U, 0x3bf8d8133e9df0efU,
  0xbc9251f7beaf45ffU, 0x3d7f1df53d67772fU, 0xbd88494d3b10e6b0U, 0x3e2ac1cbbdef0c42U,
  0x3d1afb00bd25d998U, 0x3ca4103ebd20b604U, 0xbdf2a9623ebfa20bU, 0xbe6dc8d4bd937f2fU,
  0xbf0445d33e3d6cc9U, 0xbe3b4af03eacfc0cU, 0x3e15446d3e8d2f73U, 0x3e47312a3e018cdcU,
  0x3df3f93fbd88d732U, 0x3d898c84be8609cfU, 0xba3650483e7fc0bfU, 0xbd897761be81c4a0U,
  0xbd9537a3be02fbefU, 0xbc7264fdbe08008eU, 0xbd2d6e6c3c923ee2U, 0xbda48a7bbe8ab7e3U,
  0x3e2268b03e1b28ddU, 0xbcf46013bdf65732U, 0x3df435683e2af976U, 0xbd7efd69bdc31a89U,
  0xbdcb51fd3e5231e0U, 0xbd457eb13df54c28U, 0x3c7e83223db98fa3U, 0x3e0f901bbd351e44U,
  0x3e3ae583be044657U, 0xbe6192d0bda16748U, 0x3dd6dda83d80d62cU, 0x3d86883cbe949ac4U,
  0x3e6cd5ab3e8f680bU, 0x3ce19eefbec134e1U, 0xbda4fe2ebd1c73bdU, 0xbdf9650abc2a7188U,
  0xbdc663a1bb8b97b3U, 0x3d175f783db24efcU, 0x3e3b559dbdba8dc3U, 0x3e1cab7cbe56aa1aU,
  0xbe7e55543de6db35U, 0x3d8de085be022177U, 0x3e237cfd3d3d6546U, 0xbd99f2c23cf8e2f1U,
  0xbddd2c45bd116b39U, 0x3d2c87ad3e183656U, 0xbe5bc913be269c71U, 0xbcacc24dbd3e85e6U,
  0xbe0d81413e3dcaceU, 0x3ddac048be71b97dU, 0x3e0b72e33dd833a6U, 0xbdd406cabe0e43bfU,
  0x3ddccb38bd1cc3ffU, 0x3ceea46abd781f5fU, 0xbdb7669e3d6f868eU, 0xbe0843a93dece826U,
  0x3dbe57b33e3ade03U, 0xbe816841be102b35U, 0xbdd20a033c93f62fU, 0xbdf666d4be0931a3U,
  0x3cd616b6be849e2dU, 0xbe541663bd23311dU, 0xbe120cbe3e5123eeU, 0xbdda744ebdd325e5U,
  0x3b4947bfbd0ef6f1U, 0x3db54f7ab9ae709fU, 0xbdacd5103e0cf417U, 0x3d7c7a24bdad8fd9U,
  0x3d0946e33db09665U, 0x3d4cc3273de417a0U, 0xbe5479adbc6781a6U, 0xbcc2be923d8e1af9U,
  0xbe41f8473dea5dd4U, 0x3ccf1d353e61ed49U, 0xbea1a7e8bdaf21d6U, 0xbdba60a13e46b431U,
  0xbd36c4d63d0c9226U, 0xbe0c8b16bd714feeU, 0xbe31d53cbe554d4bU, 0x3dc10444bec98553U,
  0x3cf118833b84a004U, 0x3d76883c3be263e2U, 0xbce160aabce30f05U, 0xbf18e2c5be4d8e8aU,
  0x3db7bdd43cd50056U, 0x3e8161cfbcaad9e3U, 0xbdc6e845bcee0323U, 0xbcf6a4cb3dbfcc85U,
  0xbbfa3e2f3d1c69f6U, 0x3e48c54dbe1d710bU, 0xbe8004073c139525U, 0xbe581f6ebd9f4e31U,
  0xbebcb4c13dc55a30U, 0xbe337357be0b03faU, 0xbe0c150b3e5945f9U, 0xbe33833d3ea702daU,
  0x3e04b1ec3cf503a4U, 0xbe053ea5bcd46851U, 0xbd886ca2bdd2f82aU, 0x3dbfe3c4bd89317eU,
  0xbd35b8d9bcbc111aU, 0xbe493d8b3e325228U, 0x3dca01febd94b02dU, 0xbc5fb3423e2203f1U,
  0xbe8a0c6abd4bbb67U, 0x3dde7e993e870f8aU, 0x3c8291d03caa2851U, 0x3db2a94d3d9478f6U,
  0xbddf49ad3de46862U, 0xbe8dec75bc9f687eU, 0xbe11fbaebe3b6aa7U, 0x3bd118d9be2a2f8dU,
  0x3d6c9b693c1dc965U, 0xbc6ecb7b3e1f6bf8U, 0xbdadcb19be8238ceU, 0xbda7f94f3d2c590dU,
  0x3da17142be446e51U, 0x3e200a99be288446U, 0xbe05ccf9bdbcf9a2U, 0xbe68592fbe92e452U,
  0x3e136a963deac6bdU, 0xbe1de75cbe1c5b44U, 0x3e9ed38fbe41743bU, 0xbd7402623e0d0c05U,
  0xbe6315b23c75154eU, 0xbd0f64103de131caU, 0xbdd2527e3d10f617U, 0x3dd1f3e2be4eb066U,
  0x3d729b703d5d6200U, 0xbd172dfebe8e75bfU, 0xbd533776bc91caacU, 0xbd3c953e3e0726ecU,
  0xbd4e0a20bd3fb1a1U, 0x3cc22504bdfde893U, 0x3d805a0cbdcafd8aU, 0x3d8ca1153e076591U,
  0x3d8dd17cbe62550bU, 0x3de2534b3e1cf033U, 0x3d9786e9bc1aa57fU, 0xbe603aff3dc43870U,
  0x3bf3806dbc058df8U, 0x3dc3fef1bdb2a74fU, 0xbe3dfe7fbc96e701U, 0xbdd4f981be786bdaU,
  0x3a6e27243e68c344U, 0x3dd0b4ccbd397aeaU, 0xbe95f25cbc7746c0U, 0xbd80e4d5b9bc8c94U,
  0x3e0dad6cbe5962f6U, 0x3de941f83c94194dU, 0xbe17aff7be339056U, 0xbe03479ebbdc8194U,
  0x3e1223813d2ea29aU, 0xbc3b2369be01b7a2U, 0x3d4ace72be6be5b7U, 0xbdeb9eb23ddf7527U,
  0xbe0f5cbdbd3ebc70U, 0xbdc862f6bb79386bU, 0x3d18464bbda4e4c3U, 0x3dc40adcbdaf7395U,
  0x3df8810c3e60040dU, 0xbe1756d0be8c7bdcU, 0xbd4634dd3cf02454U, 0xbde37e8c3cdfc715U,
  0xbe172f1fbe356c76U, 0xbdd54106bd6a1331U, 0xbdc71ecf3db8a77fU, 0xbd52dd133d8f2125U,
  0x3e50d93dbc46b7f4U, 0x3d95595d3da8d695U, 0xbdb3d5b43d6f3054U, 0xbcce36063e980153U,
  0xbe6614103dc11cecU, 0x3daa9921bddcc010U, 0xbdcf99b3be0175c6U, 0xbd2022ebbe224311U,
  0xbdd251ce3e13fd8bU, 0x3e11658c3e16843cU, 0xbe720807bd27acc5U, 0x3d916b6c3d9b1af7U,
  0xbd104f53be081a46U, 0x3e2ca46f3e39f4dbU, 0xbdb07a803dce5fadU, 0x3ca428b93d0d802aU,
  0x3d5fe5cbbe57c2daU, 0x3db708d2be19272bU, 0x3d86bd44bea50cb6U, 0x3db170783e599ca9U,
  0xbe052f48bdf11e18U, 0xbcd069873c7329b1U, 0x3d9ab4eabe0c9214U, 0xbd6c5ac4be00ed8dU,
  0xbd76229e3ea60878U, 0x3c4ac091be00213bU, 0x3e1b5c19be1540c8U, 0xbd64875abe476b90U,
  0xbe0b6b3abc50602aU, 0xbd26eb98be0467e3U, 0xbdeaac3bbcad500bU, 0xbe1919613e004252U,
  0x3e0b7e5e3d5af7b5U, 0x3d81e481bc6f5625U, 0x3c9ad6c93d7ddcabU, 0xbe20d6513e3c945cU,
  0xbe9bc682bca3c37aU, 0xbe869f0cbd938aa4U, 0x3ca00f67be1b16acU, 0xbdd46a3e3daf7f99U,
  0xbcd23d53bc4ce4aeU, 0x3e204724bd3147c4U, 0xbc7913efbd38b89dU, 0x3e4bd9a53da0a466U,
  0x3da1f79fbdda4b81U, 0x3dd807b73dd62c2fU, 0xbe9427b2bdeb55f1U, 0xbe410907be5a4304U,
  0xbe29930abd9608caU, 0x3d5a15d93e2027a2U, 0xbcfd374ebe57acceU, 0xbe074b143d926a57U,
  0xbe33b9e7bd37de6dU, 0xbe22c0653dace0adU, 0xbce63e74be3cfc72U, 0xbe8c078a3cfceefeU,
  0xbe6fb304bd067ccaU, 0xbe167dd7bdddd171U, 0xbd991405be122d8eU, 0xbeb91312bdd9ae1aU,
  0xbbd5fd46be0b9dffU, 0xbe4004893df13098U, 0x3dbd6dc83e1fef8dU, 0xbe3ca6133e1b06cdU,
  0x3d7e0cffbe0a0794U, 0x3dc89d83bd6da9c1U, 0xbe60a552be2005f4U, 0x3c6804073e238b04U,
  0xbe14c3fe3d61c316U, 0xbe79d2debe552990U, 0x3d57d8f6bdc67e0aU, 0x3e53f7133dbf3957U,
  0xbe023f8f3dbea444U, 0x3ea373c7be58ffd6U, 0x3cabe7ac3dea0cecU, 0x3abb06223d556361U,
  0xbc82ad083d816c9aU, 0xbdbf3e0e3dd5ad06U, 0xbee5d079be2eefe9U, 0xbdcdead4be953692U,
  0xbcf9e3f0bdae60c3U, 0x3d9d7b6a3e4a40ccU, 0xbdee1193beafbb30U, 0x3e2e95f93e9d3998U,
  0xbc1fb066bde89e41U, 0x3e8c4ba93e6d60acU, 0x3e080b64bd835c44U, 0x3b71e40abda578daU,
  0x3e4fe1863dda59f0U, 0xbe49100fbd027db3U, 0xbdb2c8803abc9469U, 0xbe14563e3d120ff5U,
  0x3dd55e31bd8fb139U, 0xbd52f4813e1bbcacU, 0x3da5591abdd1ca99U, 0x3e2d858f3e1391a3U,
  0x3d4f4212be0864b9U, 0x3d9079103e052ea2U, 0xbd8b6df1bd86afc1U, 0xbde714a0bd01a60eU,
  0xbd351351bca72ba8U, 0x3dc67477bdbd49cfU, 0x3c1e543abd9dc0edU, 0x3d1b5fa83dc3074bU,
  0xbcb29f8ebe2e2600U, 0x3e642d32bd8773f5U, 0x3ea553b53ed3e1a7U, 0x3e8367d93e1b5742U,
  0xbd9775483d3a5890U, 0x3d9faa89bc9284e6U, 0xbda1f5bdbd527003U, 0xbe13c6e3bd3c58faU,
  0x3e60f9293d9cc141U, 0xbe1078fe3d4f4e3bU, 0x3ce55ca43cb47136U, 0x3d8376a63e73afc5U,
  0xbb5a14c33b1bc52eU, 0x3ebab2363de0b7d3U, 0x3c8ee32ebcdf0963U, 0xbda219e6be64c0a5U,
  0xbda9b4f83cf4668cU, 0xbd7ac821be2fd55fU, 0xbc7dbbb43e4ceae0U, 0xbe1a99a23daaac14U,
